!
"
#
##0
##00
##000
##0000
##00000000
##001
##002
##003
##005
##006
##008
##01
##010
##014
##02
##03
##04
##05
##06
##07
##08
##09
##1
##10
##100
##101
##102
##103
##104
##105
##106
##107
##108
##109
##11
##111
##1111
##11111111
##1111111111
##112
##113
##114
##115
##116
##117
##118
##119
##12
##120
##121
##122
##123
##125
##126
##127
##128
##129
##13
##130
##131
##132
##133
##135
##139
##14
##140
##143
##144
##145
##147
##15
##150
##157
##16
##160
##163
##165
##166
##168
##17
##170
##172
##174
##177
##18
##180
##187
##188
##19
##190
##1a
##1a1
##1b
##1c
##1d
##1l
##1n1
##1p
##1r
##1−
##2
##20
##200
##201
##202
##2020
##203
##204
##205
##21
##22
##23
##24
##25
##26
##264
##27
##28
##29
##293
##294
##297
##2a
##2b
##2c
##2d
##2h
##2r
##2s
##3
##30
##300
##3022
##31
##32
##33
##336
##34
##35
##36
##37
##38
##39
##3a
##3b
##3c
##3d
##3g
##4
##40
##41
##42
##43
##44
##45
##450
##46
##47
##48
##488
##49
##4a
##4b
##5
##50
##500
##501
##506
##508
##51
##52
##53
##54
##55
##56
##562
##57
##58
##59
##5a
##5b
##5y
##5α
##6
##60
##600
##61
##62
##63
##64
##65
##66
##67
##68
##69
##6a
##7
##70
##71
##72
##73
##74
##75
##76
##77
##777
##78
##79
##7a
##8
##80
##81
##82
##83
##84
##85
##86
##87
##88
##89
##8a
##8c
##9
##90
##91
##92
##93
##937
##94
##95
##96
##97
##98
##99
##9a
##a
##a1
##a2
##a3
##aa
##aaa
##aaaa
##aaaaag
##aaaag
##aaaat
##aaac
##aaacat
##aaacc
##aaact
##aaag
##aaagg
##aaagt
##aaagtt
##aaat
##aaatt
##aaattt
##aac
##aacc
##aact
##aag
##aagct
##aagt
##aagtt
##aal
##aan
##aard
##aat
##aatt
##aattt
##ab
##aba
##aban
##abb
##abc
##abd
##abdom
##abe
##aben
##abetic
##abi
##abies
##abil
##abilities
##ability
##abine
##abl
##ablative
##able
##ables
##ably
##abol
##abolic
##abolism
##abor
##abs
##absorption
##abwe
##ac
##aca
##acaaat
##acaac
##acaact
##acaag
##acaat
##acaatt
##acac
##acacc
##acact
##acag
##acam
##acas
##acat
##acatt
##acattt
##acc
##accag
##accc
##accct
##accept
##acchar
##accharide
##accid
##acco
##acct
##acctc
##acctt
##ace
##ace2
##acea
##aceae
##aced
##acellular
##acency
##acent
##acental
##aceous
##acer
##acerb
##aces
##acet
##acetate
##aceted
##acetic
##aceu
##aceutical
##aceuticals
##acg
##acgc
##acgg
##acgt
##ach
##ache
##acheal
##achen
##acher
##aches
##achi
##aching
##achn
##achnoid
##achsen
##acht
##achten
##achus
##achusetts
##aci
##acia
##acial
##acic
##acies
##acil
##acillin
##acin
##acing
##acion
##aciones
##acity
##ación
##ack
##ackage
##acker
##ackie
##acking
##acks
##acle
##aco
##acon
##aconazole
##acor
##acore
##acoron
##acoronavirus
##acoronaviruses
##acorp
##acorporeal
##acov
##acr
##acrimal
##acrine
##acrylamide
##acs
##act
##actaat
##actable
##actam
##actant
##actants
##actc
##acted
##acter
##acterial
##acterium
##actic
##actical
##actin
##acting
##action
##actions
##activ
##activated
##activation
##active
##actively
##activity
##actone
##actor
##actors
##actory
##acts
##actt
##acttc
##acttct
##acttt
##actttt
##actyl
##acus
##acute
##acy
##acycl
##acycline
##acyclines
##acyl
##acyt
##ad
##ada
##adas
##adays
##adder
##ade
##adec
##aded
##adeh
##adel
##aden
##adequ
##ader
##ades
##adesh
##adh
##adhes
##adi
##adian
##adiaz
##adic
##adine
##ading
##adiol
##adium
##adj
##adjusted
##adjuvant
##adminis
##adna
##ado
##ador
##adores
##ados
##adren
##ads
##adv
##advant
##ae
##ael
##aemia
##aemic
##aer
##af
##afe
##afen
##afety
##aff
##affe
##affin
##afil
##afluor
##aft
##afted
##aften
##after
##afting
##afts
##ag
##aga
##agag
##agc
##agct
##age
##aged
##agement
##agen
##ager
##agers
##ages
##agg
##aggag
##aggc
##aggct
##agged
##agger
##agging
##agglutin
##aggreg
##aggs
##aggtt
##agh
##agi
##agia
##agic
##agin
##aging
##agl
##agland
##agn
##agner
##agnetic
##ago
##agog
##agon
##agonal
##agr
##agram
##agraph
##agt
##agtgc
##agtgg
##agtgtt
##agtt
##ague
##ah
##aham
##ahan
##ahed
##ahedral
##ahepatic
##ahl
##ahn
##ahr
##ahren
##ahyd
##ai
##aic
##aid
##aids
##aign
##ail
##ailand
##ails
##ain
##aine
##ained
##aines
##aining
##ains
##aint
##aints
##air
##aire
##aired
##aires
##airs
##ais
##aise
##ait
##aj
##ak
##aka
##akary
##ake
##aked
##aken
##aker
##akers
##akes
##akh
##aki
##akin
##aking
##akinra
##akis
##akr
##akt
##akter
##aktion
##aktoren
##al
##ala
##alact
##alam
##alan
##alanine
##alc
##ald
##aldehyde
##ale
##aled
##alen
##alent
##alently
##ales
##alez
##alg
##ali
##alian
##alid
##alidomide
##align
##alin
##aline
##aling
##alis
##alities
##ality
##alization
##alized
##alk
##all
##alled
##allel
##aller
##alli
##alling
##allow
##ally
##alo
##als
##alt
##alter
##alth
##alu
##aluable
##aly
##alysis
##alytic
##am
##ama
##aman
##amb
##ame
##amed
##amen
##ament
##amental
##amente
##amento
##aments
##amer
##americ
##amers
##ames
##ameth
##amethasone
##amethoxazole
##amethyl
##ami
##amic
##amicin
##amid
##amidal
##amide
##amides
##amiento
##amil
##amin
##aminase
##amination
##amine
##aminergic
##amines
##aming
##amino
##aminophen
##amins
##amivir
##amm
##amma
##ammag
##ammaglobulinemia
##amment
##amn
##amo
##amoe
##amoeba
##amol
##amos
##amoto
##amous
##amp
##amphen
##amphenicol
##ample
##amples
##ampling
##amps
##ampsia
##ams
##amt
##amura
##amycin
##an
##ana
##anagh
##anal
##analy
##analysis
##anan
##anas
##anate
##anc
##ance
##anced
##ancer
##ancers
##ances
##anch
##ancia
##anciclovir
##ancies
##ancing
##ancy
##and
##anda
##ande
##andemic
##anden
##ander
##andez
##andibular
##ando
##andoening
##andom
##andong
##ands
##ane
##aneous
##anes
##ang
##ange
##anged
##angen
##anger
##angers
##angersch
##angerschaft
##angi
##angl
##angle
##ani
##ania
##anial
##anic
##anical
##anide
##anil
##anim
##animation
##anin
##anine
##anis
##anism
##anium
##ank
##anks
##ann
##anned
##annel
##anners
##annon
##annt
##annten
##ano
##anol
##anov
##anova
##ans
##answer
##ant
##anta
##antadine
##antation
##ante
##anted
##antes
##anth
##anti
##antibod
##antic
##antig
##antigen
##antigens
##antile
##anting
##antit
##anto
##antoic
##ants
##antwort
##anus
##any
##anyl
##anz
##ao
##ap
##ap1
##apar
##aparin
##ape
##apeptide
##aper
##apers
##aph
##apheresis
##aphyl
##apia
##apie
##apine
##apolis
##apopt
##apoptotic
##app
##appa
##apped
##apping
##appr
##aps
##apse
##apsed
##apses
##apsid
##apsids
##apt
##aptic
##aptive
##apto
##apular
##apy
##aq
##aque
##ar
##ar1
##ara
##arabine
##aran
##arb
##arbeit
##arbon
##arbonate
##arboxyl
##arc
##arcer
##arch
##arching
##arcoma
##ard
##arded
##ardi
##ardia
##ardial
##arding
##ardo
##ards
##ardship
##ardy
##are
##arean
##ared
##aren
##areness
##ares
##aret
##arez
##arf
##arg
##arge
##arged
##arges
##arget
##argeting
##argin
##arging
##argo
##ari
##aria
##ariable
##arial
##arian
##arians
##arias
##ariate
##aric
##aries
##arily
##arin
##aring
##ario
##arios
##arious
##aris
##arith
##arity
##arium
##arius
##ark
##arks
##arly
##arm
##arma
##arn
##aro
##aron
##arone
##around
##arr
##array
##arrh
##arrow
##ars
##arse
##arson
##art
##artan
##arter
##arth
##arthritis
##artic
##articles
##artis
##arts
##artum
##artz
##arum
##ary
##aryng
##aryngeal
##arynx
##arz
##as
##asa
##asaki
##asal
##asant
##asc
##ascar
##asco
##ascul
##ascular
##ase
##ased
##asen
##aser
##ases
##ash
##ashi
##asi
##asia
##asian
##asic
##asin
##asing
##asion
##asions
##asis
##ask
##aska
##asks
##asm
##asome
##asomes
##ason
##asone
##asp
##ass
##assas
##assay
##assemb
##assen
##asser
##assie
##assium
##associ
##associated
##asst
##ast
##astar
##astatin
##asted
##aster
##asters
##asth
##astic
##astically
##asticity
##astig
##asting
##astric
##asts
##astv
##asure
##asy
##at
##at1
##ata
##ataag
##atable
##atac
##atacag
##atag
##atal
##atalytic
##atar
##atase
##atat
##atation
##atc
##atcag
##atcat
##atcc
##atch
##atched
##atching
##atct
##atctt
##ate
##atech
##ated
##ateg
##atel
##ately
##atem
##aten
##ateness
##ater
##ateral
##aterally
##aterial
##aterials
##atern
##aternal
##aters
##ates
##atever
##atg
##atga
##atgat
##atgc
##atgcc
##atgct
##atgctt
##atgg
##atggt
##atgt
##atgtt
##ath
##athan
##ather
##athers
##atheter
##athetic
##athic
##athogenic
##athy
##athyroid
##ati
##atia
##atib
##atibility
##atible
##atic
##atically
##atics
##atid
##atidyl
##atie
##aties
##atif
##atik
##atin
##atine
##ating
##atinib
##atins
##ation
##ational
##ationally
##ationen
##ations
##atique
##atiques
##atis
##atisch
##atische
##atischen
##atisf
##atit
##atitis
##ativ
##ativa
##ative
##atively
##ativen
##ativeness
##atives
##ativity
##ativo
##atization
##atized
##ato
##atoire
##atoires
##atology
##aton
##ator
##ators
##atory
##atosis
##atr
##atre
##atremia
##atri
##atric
##atrix
##atrol
##atry
##ats
##atsu
##att
##atta
##attag
##attc
##attct
##attctt
##atter
##attgg
##attgtt
##attr
##attt
##atttt
##atum
##atur
##atural
##aturated
##aturation
##ature
##atures
##aturity
##atus
##atz
##au
##auc
##aud
##auen
##auer
##auf
##aug
##ault
##aur
##aus
##ausal
##ause
##auses
##auss
##aut
##aux
##av
##ava
##avage
##avail
##availability
##available
##avalent
##avan
##ave
##aved
##aver
##aves
##avi
##avidin
##aving
##avir
##aviridae
##avirus
##aviruses
##avoid
##avor
##avorable
##avour
##avs
##avy
##aw
##awa
##aware
##away
##awi
##aws
##ax
##axe
##axel
##axial
##axin
##axis
##ay
##aya
##ayama
##ayan
##ayed
##ayer
##ayers
##ays
##az
##azan
##azep
##azid
##azin
##azine
##azione
##azioni
##azo
##azol
##azolam
##azole
##azoles
##azolium
##azone
##azy
##b
##b1
##b2
##b3
##b4
##ba
##baar
##bac
##bach
##back
##bad
##bal
##balanced
##ball
##ban
##band
##bank
##bar
##bare
##baren
##bas
##base
##based
##basic
##baum
##bb
##bc
##bd
##be
##bean
##bec
##beck
##bed
##beding
##behand
##bei
##being
##beit
##bek
##bel
##bell
##ben
##benz
##ber
##bere
##berg
##berger
##berry
##bers
##bert
##bes
##best
##bet
##bf
##bf1
##bi
##bia
##biased
##bij
##bil
##bild
##bildung
##bin
##binding
##bing
##bio
##biosis
##bir
##birth
##bis
##bk
##bl
##blast
##ble
##bles
##blic
##bm
##bo
##board
##boards
##bod
##body
##bon
##book
##bor
##borenen
##born
##borne
##bot
##bound
##bour
##bourne
##bov
##bow
##box
##bp
##bp1
##bp2
##br
##bra
##brain
##bral
##brand
##bre
##break
##bred
##brevi
##brid
##bridge
##bro
##bronch
##bronchial
##bru
##bruik
##bs
##bsi
##bst
##bsy
##bt
##bu
##bul
##bumin
##bur
##burg
##burgh
##burn
##bury
##bus
##but
##buvir
##bv
##bw
##by
##c
##c1
##c2
##c3
##c4
##ca
##caacc
##caact
##caag
##caat
##cac
##cact
##caemia
##cag
##cagc
##cal
##calc
##cale
##cales
##cam
##can
##cap
##cape
##capes
##car
##care
##case
##cast
##castle
##cat
##catct
##cation
##cc
##cca
##ccag
##ccc
##ccct
##ccs
##cct
##cctc
##cctt
##cd
##ce
##ced
##ceed
##ceeding
##cein
##cell
##cemia
##cemic
##cence
##cens
##cent
##centr
##cents
##cep
##cephal
##cephalus
##cephaly
##cept
##ceptib
##ception
##ceptions
##cepts
##cer
##certain
##ces
##cess
##cetin
##cg
##ch
##ch2
##ch3
##cha
##chaft
##chain
##change
##char
##character
##che
##ched
##cheid
##cheiden
##chein
##chell
##chem
##chemical
##chen
##cher
##cherry
##ches
##chez
##chi
##chied
##child
##ching
##chip
##chl
##chließ
##chlor
##chloride
##chloss
##chluss
##chn
##choline
##chool
##chr
##chron
##chrän
##ci
##cia
##cid
##cience
##ciences
##cil
##cin
##cine
##cing
##cious
##ción
##ck
##cl
##cl2
##cl3
##cla
##class
##clc
##cler
##clinical
##clone
##cls
##clusive
##cm
##cn
##cnac
##co
##co3
##coag
##com
##come
##coming
##comings
##comp
##con
##cop
##cope
##cor
##core
##cos
##cov
##covid
##cox
##cp
##cr
##cr1
##cre
##cri
##crib
##cribe
##cribed
##crim
##cript
##cription
##cripts
##critical
##crna
##crnas
##crt
##cs
##ct
##ctc
##ctct
##ctgg
##ctgtt
##ction
##ctions
##ctt
##cttt
##ctttt
##cu
##cv
##cy
##cycler
##d
##d1
##d2
##d3
##d4
##da
##dah
##dam
##dat
##day
##days
##db
##dc
##dd
##de
##ded
##def
##dehyd
##dehyde
##dehydes
##del
##dem
##den
##dens
##dep
##dependent
##der
##derived
##dern
##ders
##des
##developed
##dex
##dez
##df
##dh
##di
##diagn
##diagnos
##diagnosed
##diagnosis
##dic
##diii
##din
##ding
##dinger
##dings
##dis
##dition
##divid
##dl
##dle
##dles
##dm
##dna
##do
##dock
##dom
##domain
##domains
##don
##dong
##down
##dp
##dr
##dra
##draw
##drom
##drome
##druck
##drug
##ds
##dt
##du
##duc
##duce
##duced
##duct
##duction
##ductor
##due
##dv
##dy
##dye
##dynamic
##e
##e1
##e2
##e6
##ea
##eable
##ead
##eal
##ean
##ear
##earch
##ears
##eas
##easible
##east
##eastern
##eau
##eb
##ec
##eca
##ecal
##ecan
##ecc
##ecciones
##ección
##ecd
##ece
##eced
##ecept
##eceptor
##eceptors
##eces
##ecess
##ech
##echa
##echat
##echn
##echnology
##echs
##echst
##echt
##echter
##eci
##ecia
##eck
##ecks
##ecl
##eco
##econ
##economic
##ecs
##ect
##ectable
##ectal
##ectamine
##ectasis
##ecte
##ected
##ecti
##ectic
##ectin
##ecting
##ectins
##ection
##ectional
##ections
##ectiv
##ective
##ectively
##ectives
##ectivity
##ecto
##ectom
##ectomy
##ecton
##ector
##ectoral
##ectories
##ectors
##ectory
##ects
##ecture
##ectures
##ecu
##ecurity
##ecutive
##ed
##eda
##ede
##edema
##eden
##eder
##edge
##edi
##edia
##edias
##ediated
##ediatric
##edic
##edical
##edicine
##edics
##edict
##edient
##edients
##eding
##edit
##eds
##edy
##ee
##eed
##eeding
##eeism
##een
##eenth
##ees
##ef
##eff
##efin
##efined
##eft
##eg
##ega
##egu
##eh
##ei
##eic
##eid
##eil
##ein
##eins
##eit
##ek
##ekt
##ektion
##el
##ela
##elae
##eland
##eld
##ele
##elec
##elect
##elected
##elective
##electric
##eled
##elen
##eles
##eless
##eley
##elf
##eli
##elia
##eliac
##elial
##elic
##elihood
##elijk
##elijke
##elin
##eline
##elines
##eliness
##eling
##elioma
##elium
##ell
##ella
##ellar
##ellation
##elle
##elled
##ellen
##eller
##ellers
##elles
##elli
##elling
##ellite
##ello
##ellosis
##ellow
##ells
##ellsch
##ellschaft
##ellt
##ellular
##ellulose
##ellum
##ellung
##elmin
##eln
##elo
##elong
##els
##elsen
##elson
##elt
##elta
##elve
##elves
##ely
##em
##ema
##emaker
##eman
##emann
##emas
##emat
##ematous
##emb
##ember
##embol
##embr
##embrane
##eme
##emen
##ement
##emente
##ementioned
##ements
##emerg
##emi
##emia
##emias
##emic
##emide
##emie
##emm
##emost
##emp
##ems
##emsa
##emy
##en
##ena
##enan
##enari
##enberg
##enc
##ence
##enced
##encephal
##encer
##ences
##ench
##enchym
##enchymal
##encia
##encial
##encias
##encies
##encing
##ención
##encl
##ency
##end
##enda
##endant
##endas
##endazole
##ende
##ended
##enden
##endent
##ender
##enders
##endicular
##ending
##endo
##endocrine
##endorf
##endoth
##endothelial
##endou
##ends
##ene
##ened
##enedi
##enem
##enen
##ener
##enes
##eness
##enet
##enez
##eng
##enge
##enger
##engine
##ength
##enh
##enhagen
##eni
##enia
##enic
##enin
##ening
##eningitis
##enius
##enk
##enn
##enna
##enne
##ennial
##eno
##enol
##ens
##ensch
##enschaft
##ense
##ensen
##enses
##ensin
##ension
##ensions
##ensis
##ensitive
##ensitivity
##ensity
##ensive
##ensively
##enso
##enson
##ensor
##ensors
##ensus
##ent
##enta
##ental
##entary
##entation
##ente
##ented
##enten
##enter
##enteric
##entery
##entes
##enth
##enthal
##enti
##entia
##ential
##entially
##entic
##entical
##entie
##entif
##entified
##entilation
##entin
##enting
##ention
##entious
##entist
##entists
##entive
##entlich
##ently
##entr
##entre
##entric
##entricular
##entrifug
##ents
##enty
##enveloped
##environ
##enyl
##enz
##enza
##enzen
##enzi
##enzym
##enzyme
##eor
##ep
##epatic
##epend
##ependent
##eph
##ephal
##epi
##epid
##epidem
##epidemi
##epith
##epithelial
##epr
##eps
##epsilon
##ept
##eptic
##eptid
##eptidase
##eptidases
##eptide
##eptides
##eptidyl
##eption
##eptive
##eq
##equ
##equencing
##er
##era
##erad
##eradish
##erae
##eral
##erap
##eras
##erase
##erate
##erated
##erating
##eration
##erative
##erc
##erce
##ercul
##erculosis
##erd
##erde
##ere
##ered
##ereign
##erem
##eremia
##eren
##erent
##erer
##eres
##eresis
##erg
##erge
##ergic
##ergy
##eri
##eria
##eric
##eries
##erin
##ering
##erk
##erkrank
##erkrankungen
##erm
##erman
##ermann
##ern
##ernat
##ero
##eron
##ers
##erse
##erseits
##ersen
##ersey
##ership
##erson
##ersonal
##ert
##erte
##erto
##ertoire
##erum
##erung
##erv
##ervation
##erve
##erved
##erver
##erves
##erving
##ery
##eryth
##es
##escence
##escent
##ese
##esearch
##esh
##esi
##esia
##esis
##esium
##esized
##esophageal
##ess
##esse
##essen
##essential
##ession
##essional
##essions
##essive
##est
##esta
##estation
##este
##ested
##estens
##ester
##esters
##esth
##estim
##estinal
##esting
##esto
##estrial
##estro
##ests
##esus
##et
##eta
##etah
##etal
##etary
##ete
##etection
##eted
##eten
##etence
##etent
##eter
##eterm
##etermined
##eters
##etes
##eth
##ethanol
##ether
##ething
##ethyl
##ethylated
##ethylene
##eti
##etic
##etics
##eties
##etine
##eting
##etit
##etized
##eto
##etom
##etomidine
##eton
##etr
##etra
##etri
##etric
##etrical
##etrix
##etry
##ets
##ett
##etta
##ette
##ettes
##etti
##etting
##etto
##etts
##etus
##ety
##etz
##etzt
##eu
##eud
##eur
##eus
##eux
##ev
##eva
##evalu
##eve
##event
##ever
##evolution
##ew
##ewhere
##ewise
##ework
##eworthy
##ews
##ex
##existing
##exp
##expl
##ey
##ez
##eze
##ezes
##ezing
##f
##f1
##f2
##f3
##f4
##f7
##fa
##fact
##fall
##falls
##fam
##famil
##families
##family
##far
##fast
##fc
##fe
##fect
##fected
##fection
##fehl
##feld
##fen
##fer
##ferase
##ferases
##ference
##ferencing
##fern
##feron
##fetil
##ff
##ffer
##ffici
##fficient
##fficients
##fh
##fi
##fic
##fication
##ficial
##ficially
##field
##fig
##fil
##fin
##firmed
##fish
##fit
##fl
##flag
##flex
##flow
##flu
##fly
##fo
##fois
##fol
##fold
##folded
##foli
##folio
##fon
##fonts
##for
##force
##ford
##forder
##fore
##form
##formed
##formin
##forms
##fort
##forth
##forward
##fp
##fr
##frak
##frame
##fre
##free
##frequ
##front
##fs
##ft
##ful
##fully
##function
##functional
##functions
##fung
##funk
##funktion
##fusion
##fv
##g
##g1
##g2
##ga
##gaa
##gaaat
##gaac
##gaag
##gaagtt
##gaard
##gaat
##gaatt
##gac
##gacat
##gacc
##gact
##gag
##gagt
##gal
##galement
##gan
##gang
##gar
##gas
##gat
##gative
##gatt
##gattt
##gb
##gc
##gca
##gcact
##gcag
##gcc
##gcct
##gcg
##gct
##gctc
##gctgct
##gctgtt
##gctt
##gd
##ge
##geb
##geben
##ged
##gef
##geführt
##geh
##gehen
##gel
##gels
##gem
##gen
##gend
##gende
##genden
##gene
##genic
##geno
##gens
##ger
##gers
##gery
##ges
##gesamt
##gesch
##gest
##gestion
##get
##gets
##gev
##gew
##gf
##gfp
##gg
##ggag
##ggc
##ggcc
##ggct
##ggctt
##ggt
##ggta
##ggtgtt
##ggtt
##gh
##ghan
##gi
##gia
##gias
##gical
##ging
##gis
##gl
##gl2
##glich
##globulin
##gluc
##glut
##gly
##gm
##gn
##go
##going
##gos
##gow
##gp
##gr
##grad
##grade
##graduate
##gram
##gramm
##grams
##gran
##graph
##graphs
##graphy
##gree
##greek
##gren
##gro
##group
##growth
##grund
##gs
##gt
##gta
##gtaat
##gtac
##gtact
##gtag
##gtat
##gtc
##gtcat
##gtcc
##gtct
##gtctt
##gtg
##gtgat
##gtgc
##gtgct
##gtgg
##gtggt
##gtgt
##gtgtt
##gtt
##gttt
##gtttt
##gu
##gue
##gulation
##gulatory
##gun
##gus
##gut
##gy
##h
##h1
##h2
##h2o
##ha
##hae
##haem
##hai
##hal
##halb
##halt
##halten
##ham
##han
##hand
##hang
##hans
##hao
##hap
##haps
##har
##hard
##hat
##haus
##haw
##haz
##hc
##hd
##he
##hea
##head
##heads
##health
##healthy
##heb
##hed
##heet
##heets
##heid
##heim
##heimer
##heit
##heiten
##heits
##hel
##held
##hem
##hen
##henyl
##her
##here
##herin
##herpes
##hes
##hex
##hexidine
##hg
##hi
##hib
##hin
##hip
##hips
##hire
##his
##hl
##hlen
##hm
##hme
##hmen
##hn
##ho
##hoe
##hoff
##hol
##hold
##holder
##holders
##holding
##holds
##holm
##hood
##hosph
##hospital
##hou
##house
##houses
##how
##hp
##hr
##hrine
##hringer
##hs
##ht
##hu
##hua
##hung
##hv
##hy
##hyd
##hydr
##häng
##hängig
##hö
##i
##i1
##i2
##ia
##iable
##iaceae
##iae
##iagn
##ial
##iale
##ially
##ials
##ian
##iana
##iang
##iani
##iano
##ians
##iao
##ias
##iasis
##iation
##iatric
##iaz
##iazep
##ib
##iba
##iber
##iberal
##ibil
##ibilidad
##ibilities
##ibility
##ible
##ibles
##ibly
##ibr
##ibration
##ibular
##ibund
##ic
##ica
##ical
##ically
##ican
##icans
##icas
##icate
##ication
##ice
##iced
##ices
##ich
##iche
##ichen
##icher
##ichi
##ichia
##icht
##ichte
##ichtet
##ichtlich
##ichts
##ici
##icial
##ician
##icians
##icidal
##icide
##icides
##iciencies
##iciency
##icient
##iciently
##icill
##icillin
##icin
##icine
##icio
##icion
##icious
##icity
##ición
##ick
##icked
##icki
##icking
##icle
##icles
##iclovir
##ico
##icol
##icon
##icos
##icrobial
##ics
##ict
##iction
##ictor
##ictus
##icul
##icular
##icus
##icz
##id
##ida
##idad
##idades
##idae
##idal
##idas
##idase
##idases
##idazole
##ide
##ided
##idel
##idelity
##idem
##idemia
##iden
##idence
##idene
##ident
##idential
##ider
##iders
##ides
##idge
##idi
##idia
##idial
##idian
##idic
##idin
##idine
##idines
##iding
##idino
##idiosis
##idis
##idium
##ido
##idol
##idone
##idor
##idos
##idosis
##ids
##idu
##idum
##idym
##ie
##ied
##ief
##iegel
##iel
##ield
##ielding
##ields
##ielle
##ien
##ience
##iens
##ient
##iente
##ientes
##iently
##iento
##ientos
##ients
##ier
##iere
##ieren
##ierende
##ierenden
##ieri
##iers
##iert
##ierte
##ierten
##ierter
##ierung
##ies
##iesen
##iesis
##iest
##ieties
##ieu
##ieurs
##ieux
##if
##ife
##ifen
##ifenovir
##ifer
##ifera
##iferous
##ifers
##iff
##iffer
##ifferenti
##ifferentiated
##iffs
##ifi
##ific
##ificant
##ification
##ifications
##ified
##ifier
##ifiers
##ifies
##ifik
##ifit
##ifloxacin
##iflu
##ifn
##iform
##iformes
##ift
##ifting
##ifts
##ifug
##ify
##ifying
##ig
##igan
##ige
##igen
##igenic
##igenin
##iger
##iges
##igh
##igheid
##ight
##ighted
##ighter
##ighting
##ights
##igil
##igilance
##igkeit
##igma
##ign
##igned
##ignificant
##igo
##igration
##igt
##igu
##igung
##iguous
##ih
##ihood
##ii
##iii
##ij
##ijk
##ijke
##ijn
##ijns
##ik
##ika
##ikation
##ikawa
##ike
##ikely
##iken
##iki
##ikk
##iko
##il
##ila
##ilar
##ilateral
##ilation
##ild
##ilde
##ilden
##ile
##iled
##iler
##ilers
##iles
##iley
##ili
##ilia
##ilians
##iliar
##iliary
##iliated
##ilic
##ilin
##iling
##ilipp
##ilis
##ilities
##ility
##ilization
##ilized
##ill
##illa
##illance
##illar
##illary
##illas
##ille
##illed
##iller
##illes
##illi
##illin
##illing
##illion
##illo
##illon
##ills
##illus
##ilon
##ils
##ilst
##ilt
##ilton
##ilum
##ilumab
##iluted
##ily
##im
##ima
##imab
##imaging
##imal
##imb
##ime
##imed
##imension
##imensional
##iment
##iments
##imer
##imeric
##imers
##imeter
##imetic
##imetric
##imetry
##imid
##imide
##imiento
##imilar
##imine
##imited
##imm
##immer
##imming
##immun
##immune
##imod
##imolar
##imoto
##imp
##ims
##imumab
##imus
##in
##ina
##inae
##inal
##inally
##inance
##inant
##inar
##inarily
##inary
##inase
##inate
##inated
##inately
##inates
##inating
##ination
##inations
##inator
##inators
##inavir
##inc
##ind
##inden
##inder
##inding
##indole
##induced
##ine
##inea
##inear
##ined
##inement
##inen
##inent
##inep
##inephrine
##iner
##inergic
##ines
##inescence
##inescent
##iness
##inet
##inex
##inf
##infected
##infecti
##infection
##infectious
##infek
##infektion
##infektionen
##infl
##inflamm
##inflammation
##inflammatory
##inform
##information
##ing
##inge
##ingen
##inger
##ingly
##ings
##ington
##inhib
##ini
##inia
##inical
##inii
##ining
##inis
##inity
##inj
##ink
##inki
##inking
##inks
##inn
##ino
##inois
##inol
##inoly
##inone
##inos
##inositol
##ins
##insic
##inski
##inson
##int
##inted
##integr
##inter
##inting
##ints
##inum
##inus
##invasive
##io
##ioblast
##iod
##iol
##ion
##ional
##ionales
##ione
##iones
##ioni
##ionic
##ionine
##ions
##iop
##ior
##iors
##ios
##iosis
##iotic
##iotics
##ious
##iously
##ip
##ipar
##iparum
##ipated
##ipenem
##iper
##iph
##iphatic
##ipher
##ipine
##ipl
##iplinary
##ipp
##ipped
##ipper
##ipping
##ips
##iqu
##ique
##iques
##iquimod
##ir
##ira
##irable
##iration
##iratory
##iravir
##irc
##irculation
##ird
##ire
##irect
##irected
##irectional
##ired
##ires
##iri
##iries
##iring
##iris
##irm
##irmed
##irn
##irna
##iro
##irs
##irub
##irubin
##iry
##is
##isa
##isation
##isations
##isb
##isc
##isch
##ische
##ischen
##ischer
##isches
##isciplinary
##ise
##ised
##isen
##isep
##iseptica
##iseq
##iser
##ises
##isg
##ish
##ished
##isher
##ishi
##ishing
##ishment
##isi
##isia
##isible
##isierung
##isin
##ising
##ision
##isions
##isite
##isition
##isk
##ism
##isms
##ismus
##ison
##isons
##isp
##ispens
##ispers
##isph
##ispiel
##iss
##issance
##isse
##issen
##ission
##issions
##isson
##ist
##ista
##istan
##istance
##istant
##istar
##iste
##isted
##istent
##ister
##isters
##isti
##istic
##istically
##istin
##isting
##istinguish
##isto
##istol
##istrib
##istribution
##istries
##istronic
##istry
##ists
##isy
##it
##ita
##itability
##itabine
##itable
##itably
##itaire
##ital
##itamin
##itan
##itance
##itant
##itants
##itar
##itarian
##itary
##itas
##itate
##itated
##itates
##itating
##itation
##itative
##itch
##ite
##ited
##iteit
##itely
##iten
##iter
##iterp
##iterpen
##iters
##ites
##itet
##ith
##ither
##ithi
##ithromycin
##iti
##itic
##itidis
##ities
##itig
##itim
##itin
##itine
##iting
##itinib
##ition
##itions
##itious
##itis
##itism
##itive
##itively
##itives
##itivity
##itiz
##itization
##itize
##itized
##itizing
##ito
##itol
##iton
##itonavir
##itone
##itoneal
##itoneally
##itoneum
##itonin
##itor
##itories
##itors
##itory
##itos
##itr
##itrap
##itre
##itrin
##its
##itt
##ittal
##ittel
##itten
##itter
##itting
##itud
##itude
##itudes
##itum
##itung
##itus
##ity
##itz
##ità
##itä
##ität
##itäts
##ité
##ités
##ium
##ius
##iv
##iva
##ival
##ivalent
##ivan
##ive
##ived
##ively
##iven
##iveness
##iver
##ivers
##iversity
##ives
##iving
##ivir
##iviridae
##ivirus
##iviruses
##ivity
##ivo
##ivudine
##iw
##iwan
##ix
##ixed
##iximab
##iz
##iza
##izability
##izable
##ización
##izar
##ization
##izations
##ize
##ized
##izer
##izers
##izes
##izi
##izienz
##iziert
##izierten
##izin
##izing
##izumab
##izz
##ière
##ión
##j
##ja
##jan
##jar
##jd
##je
##ject
##jee
##jes
##ji
##jiang
##jin
##jing
##jk
##jo
##jor
##jour
##ju
##jud
##jug
##jugated
##jun
##junctiv
##k
##k1
##k2
##k3
##k4
##k9
##ka
##kal
##kan
##kar
##kary
##kb
##kd
##ke
##keep
##keeping
##keit
##keits
##kel
##ken
##ker
##kes
##ket
##key
##keypox
##keys
##kg
##kh
##ki
##kii
##kin
##kind
##kine
##king
##kingen
##kinin
##kins
##kit
##kk
##kl
##kle
##km
##kn
##know
##ko
##kok
##kol
##komp
##kon
##kop
##kov
##kp
##kr
##krank
##ks
##kt
##kte
##kten
##kul
##kung
##kungen
##kv
##ky
##kyo
##kör
##l
##l1
##l2
##l3
##l4
##la
##lab
##lag
##lage
##laid
##lam
##lamm
##lamyd
##lan
##lance
##land
##lands
##lang
##lantic
##lar
##las
##lash
##lasia
##lasm
##lasma
##lass
##last
##lastic
##lasts
##lasty
##lat
##late
##lated
##lates
##lation
##lational
##lauf
##lav
##lc
##ld
##lds
##le
##lear
##leb
##lec
##led
##ledge
##leg
##legend
##lei
##leich
##lem
##lement
##lementing
##lements
##lemm
##len
##length
##ler
##lers
##les
##less
##lessly
##lessness
##lestranded
##let
##lete
##letely
##letes
##leton
##lets
##lett
##leuk
##lev
##levant
##level
##lex
##ley
##lf
##lh
##li
##lia
##lic
##licate
##licated
##licates
##lication
##lications
##lich
##liche
##lichen
##licher
##lichkeit
##licit
##licity
##lick
##licted
##lie
##lied
##lier
##liers
##lies
##liest
##ließ
##life
##lig
##light
##lijk
##lik
##like
##lim
##lin
##line
##lined
##lines
##liness
##ling
##lings
##lingual
##linical
##lining
##link
##linked
##linking
##lip
##lipidemia
##lips
##liptin
##lis
##lish
##lished
##lisis
##list
##lists
##lit
##litaxel
##lity
##ll
##ller
##lm
##ln
##lo
##load
##loaded
##loads
##lob
##lobular
##lobulin
##lobulinemia
##lock
##log
##loid
##lon
##look
##lor
##lora
##loroquine
##los
##lot
##lots
##lough
##lov
##lovir
##low
##lox
##loxacin
##loy
##loys
##lp
##lr
##ls
##lt
##lu
##luc
##lud
##luent
##lung
##lungs
##luor
##lus
##luss
##lutin
##lution
##lux
##lv
##ly
##lyc
##lycer
##lycos
##lycosylated
##lying
##lyl
##lys
##lysis
##lä
##lè
##m
##m1
##m2
##m3
##ma
##mac
##mal
##man
##mann
##mans
##map
##mar
##mark
##marks
##mas
##math
##matic
##max
##mb
##mber
##mbh
##mc
##md
##me
##me3
##meas
##med
##medi
##mediated
##medizin
##meier
##mel
##men
##ment
##mental
##mente
##mented
##menting
##mentioned
##ments
##mer
##mero
##mers
##merzen
##mes
##met
##meth
##methyl
##metic
##mg
##mi
##mia
##mic
##mid
##min
##ming
##mingham
##minis
##miss
##mission
##missions
##mit
##mitt
##mitted
##mittel
##ml
##mm
##mmun
##mmung
##mo
##mod
##modified
##mog
##mon
##monary
##mond
##more
##mos
##most
##mp
##mpan
##mph
##mploy
##mpo
##mps
##mptom
##mptomatic
##mr
##ms
##mt
##mung
##mus
##mut
##mv
##n
##n1
##n2
##n3
##n4
##n6
##n8
##na
##nac
##nahme
##nahmen
##nal
##nals
##nam
##nan
##nas
##national
##nb
##nc
##nd
##ne
##nea
##neasy
##neb
##ned
##neg
##negative
##nehm
##nel
##nels
##nen
##ner
##nes
##ness
##net
##netic
##nett
##neu
##neum
##neumonia
##neur
##nexin
##ney
##neys
##nez
##nf
##ng
##nh
##ni
##nia
##nic
##night
##nik
##ning
##nings
##nis
##nisolone
##nisse
##nl
##nm
##nn
##no
##noea
##not
##nots
##np
##nps
##npv
##nr
##ns
##nt
##nung
##nv
##nx
##ny
##o
##o1
##o2
##o3
##o4
##oa
##oablative
##oac
##oacetic
##oag
##oagul
##oal
##oalbumin
##oalveolar
##ob
##oba
##obac
##obactam
##obacter
##obacteria
##obacterium
##obarb
##obarbital
##obe
##obenz
##ober
##obi
##obia
##obic
##obiotic
##oblast
##oblastic
##oblasts
##obs
##obular
##obut
##oc
##oca
##ocaine
##ocal
##ocalization
##ocamp
##ocap
##ocar
##ocarcin
##ocard
##ocardi
##ocardial
##ocarditis
##ocated
##ocation
##occ
##occup
##ocellular
##ocent
##ocentesis
##och
##oche
##ochem
##ochemical
##ochemistry
##ochen
##ochlor
##ochond
##ochrom
##ochromat
##ochrome
##ocht
##oci
##ocial
##ocida
##ocin
##ock
##ocks
##ocl
##oclonal
##oco
##ococ
##ococc
##ococcal
##ococci
##ococcosis
##ococcus
##ocomp
##ocompatibility
##ocon
##oconjug
##oconjugates
##oconstr
##ocor
##ocortic
##ocr
##ocrine
##ocrit
##ocs
##oct
##ocular
##oculation
##ocument
##ocumented
##ocus
##ocy
##ocyan
##ocyanate
##ocycl
##ocycler
##ocys
##ocyst
##ocystis
##ocysts
##ocyt
##ocyte
##ocytes
##ocytic
##ocytopenia
##ocytosis
##od
##oda
##odal
##ode
##oded
##odegrad
##odem
##oden
##odend
##oder
##oderm
##oderma
##odes
##odex
##odi
##odia
##odial
##odialysis
##odies
##odil
##odin
##oding
##odium
##odo
##odom
##odomain
##odon
##ods
##ody
##odynam
##odynamic
##odynamically
##odynamics
##odys
##oe
##oen
##oencephal
##oencephalitis
##of
##ofacial
##ofer
##off
##ofi
##ofib
##ofil
##ofl
##ofloxacin
##oflu
##ofluores
##ofol
##ofovir
##ofs
##og
##ogaster
##ogastric
##oge
##ogen
##ogene
##ogeneic
##ogenes
##ogenesis
##ogenetic
##ogenic
##ogenicity
##ogenous
##ogens
##ogether
##ogg
##oglob
##oglobin
##oglobulin
##ogly
##oglyc
##oglycan
##oglycans
##oglycos
##oglycoside
##oglycosides
##ogn
##ognitive
##ogr
##ograf
##ograft
##ografts
##ogram
##ograms
##ogran
##ograph
##ographic
##ographie
##ography
##ogroup
##ogs
##ogue
##oh
##ohep
##ohist
##ohl
##ohlen
##ohyd
##oi
##oic
##oid
##oidal
##oides
##oidosis
##oids
##oin
##oint
##ointed
##ointing
##oints
##oir
##oires
##ois
##oise
##ok
##oka
##oke
##oked
##okes
##okin
##okinase
##okine
##oking
##okken
##okokken
##ol
##ola
##olab
##olae
##olar
##olarization
##olaryng
##olate
##olated
##olateral
##olating
##olation
##old
##olding
##olds
##ole
##olec
##olecular
##olecule
##olecules
##olemia
##oler
##oles
##olester
##olet
##oli
##olia
##olic
##olid
##olide
##olin
##oline
##olinium
##olino
##olins
##olip
##olipid
##olipids
##olis
##olism
##olith
##olitinib
##olitis
##oll
##ollen
##olly
##olo
##olog
##ologic
##ological
##ologically
##ologie
##ologies
##ologique
##ologiques
##ologisch
##ologische
##ologischen
##ologist
##ologists
##ologous
##ology
##ología
##olon
##olone
##ols
##olus
##olution
##olved
##oly
##olyl
##olymer
##olys
##olysin
##olysis
##olytic
##olytica
##ológ
##ológico
##om
##oma
##omal
##oman
##omann
##omannan
##omas
##omat
##omatic
##omatis
##omatosis
##omatous
##omavirus
##omaviruses
##omb
##ombre
##ome
##omed
##omeg
##omega
##omegal
##omegaly
##omen
##omeningitis
##omer
##omerase
##omere
##omeric
##omers
##omes
##omet
##ometer
##ometers
##ometh
##omethyl
##ometr
##ometric
##ometrical
##ometrically
##ometry
##omi
##omial
##omib
##omic
##omics
##omide
##oming
##omm
##ommen
##ommod
##omnia
##omo
##omod
##omogene
##omon
##omonas
##omorph
##omorphic
##omorphism
##omotor
##omous
##omp
##ompass
##omplex
##oms
##omy
##omyc
##omyces
##omycin
##omycosis
##omyel
##omyelitis
##omyx
##on
##ona
##onal
##onald
##onas
##onasal
##onate
##onazole
##onch
##ond
##onde
##onden
##onder
##ondere
##onders
##onding
##onds
##one
##onec
##onecrosis
##onectin
##oned
##onen
##onent
##onents
##oneph
##onephritis
##ones
##oney
##ong
##onge
##oni
##onia
##onic
##onical
##onide
##onie
##onin
##onine
##oning
##onins
##onit
##onitrile
##onium
##onn
##ono
##onomic
##onous
##ons
##onsin
##onstr
##ont
##ontal
##ontally
##ontam
##ontin
##onto
##ontr
##ontrol
##onucle
##onuclear
##onuclease
##onucleases
##onucleotid
##onucleotide
##onv
##ony
##onym
##onymous
##oo
##ood
##ool
##ools
##oom
##oon
##oons
##oop
##oor
##oors
##ooth
##op
##opa
##opar
##oparas
##opard
##opat
##opath
##opathic
##opathie
##opathies
##opathological
##opathology
##opathy
##opausal
##opd
##ope
##open
##openem
##openia
##openic
##opeptidase
##opeptidases
##opeptide
##oper
##operative
##operatively
##operfusion
##operoxidase
##opes
##oph
##ophag
##ophage
##ophageal
##ophages
##ophagy
##opharm
##ophen
##ophenyl
##opher
##ophil
##ophila
##ophile
##ophilia
##ophilic
##ophilus
##ophobia
##ophore
##ophores
##ophosph
##ophren
##ophthal
##ophy
##ophyll
##ophylline
##ophys
##ophysi
##ophyt
##ophytes
##opia
##opic
##opictus
##opid
##oping
##opl
##oplan
##oplanin
##oplas
##oplasia
##oplasm
##oplasma
##oplasmic
##oplasmosis
##oplast
##oplastic
##oplastin
##oplasts
##oplasty
##ople
##oplex
##opneumonia
##opneumoniae
##opo
##opoie
##opoiesis
##opoietic
##opol
##opoli
##opolitical
##opoly
##opor
##opoulos
##opr
##opress
##opril
##oprim
##oprophylaxis
##opropyl
##oprote
##oprotective
##oprotein
##oproteins
##ops
##opsis
##opt
##opter
##optera
##optic
##optim
##optysis
##opulation
##opulmonary
##opur
##opus
##opy
##opyr
##opyran
##opyranoside
##oqu
##oquine
##oquinol
##or
##ora
##oracic
##oradi
##oral
##orated
##oration
##orb
##orbe
##orbeeld
##orbent
##orbid
##orbidities
##orbidity
##ord
##ordance
##ordant
##order
##orders
##ording
##ords
##ore
##oreal
##ored
##oren
##ores
##orescence
##oresis
##orestation
##orf
##orfer
##org
##organ
##organic
##organis
##orge
##orgung
##orh
##ori
##oria
##orial
##orib
##oribonuclease
##oric
##orice
##oride
##orient
##ories
##orin
##orine
##oring
##orins
##oris
##ork
##orks
##orm
##ormal
##orn
##orna
##oro
##orous
##orov
##orp
##orph
##orphine
##orption
##orptive
##orr
##orrelated
##orrh
##orrhea
##ors
##orse
##ort
##ortal
##orte
##orted
##ortem
##orter
##orth
##orthy
##ortic
##ortin
##orting
##ortion
##ortions
##ortis
##ortisone
##orts
##ortun
##orubicin
##orum
##ory
##orylated
##orylation
##orz
##orza
##os
##osa
##osacchar
##osal
##osamine
##osan
##osarcoma
##osc
##oscience
##oscler
##oscop
##oscope
##oscopic
##oscopy
##osd
##ose
##osed
##osen
##osens
##oses
##osexual
##osh
##osi
##osidase
##oside
##osider
##osides
##osin
##osine
##osing
##osinus
##osis
##osite
##ositi
##osition
##ositis
##ositive
##osity
##oskel
##oskeletal
##osm
##osmia
##oso
##osol
##osols
##osom
##osoma
##osomal
##osome
##osomes
##osomiasis
##osp
##ospasm
##osperm
##osph
##osphate
##osphere
##ospital
##ospor
##ospora
##oss
##ost
##ostal
##ostasis
##ostat
##ostatic
##ostatin
##oster
##osterol
##osterone
##ostic
##ostom
##ostomy
##ostr
##osum
##osupp
##osure
##osures
##osus
##osyl
##osylated
##osyltransferase
##ot
##ota
##otal
##otation
##ote
##oted
##otemp
##otemporal
##oten
##otent
##oter
##otes
##oth
##other
##otherap
##otherapeu
##otherapeutic
##otherapies
##otherapy
##othermal
##othi
##othiaz
##othor
##othorax
##othre
##othreitol
##oti
##otic
##otics
##otid
##oting
##oto
##otom
##otomy
##otopic
##otor
##otox
##otoxic
##otoxicity
##otoxin
##otoxins
##otr
##otra
##otrache
##otracheal
##otrans
##otransplantation
##otrex
##otri
##otrop
##otroph
##otrophic
##otropic
##otropy
##otrypsin
##ots
##ott
##otten
##otti
##otyp
##otype
##otyped
##otypes
##otypic
##otypical
##otypically
##otyping
##ou
##oub
##ough
##ought
##oul
##ould
##oulder
##oun
##ounce
##ounced
##ound
##ounder
##ounding
##ounds
##ount
##ounted
##ounting
##ounts
##oup
##our
##ouracil
##ours
##ourse
##ourses
##ous
##ouse
##ouses
##ously
##out
##outs
##ov
##ova
##ovalent
##ovascular
##ove
##oved
##over
##overn
##overnmental
##overs
##oves
##ovi
##ovic
##ovir
##oviral
##oviridae
##ovirus
##oviruses
##ovs
##ow
##owa
##owed
##ower
##owitz
##owl
##own
##ows
##owski
##ox
##ox1
##oxane
##oxanide
##oxazole
##oxia
##oxic
##oxicity
##oxid
##oxidase
##oxide
##oxifen
##oxin
##oxins
##oxy
##oxygen
##oxygenase
##oxyl
##oxylin
##oxyp
##oxys
##oy
##oyl
##oz
##ozo
##ozoite
##ozoites
##ozyg
##ozygous
##ozyme
##ozyt
##ozyten
##oï
##p
##p1
##p2
##p3
##p4
##pa
##pace
##pad
##pan
##par
##param
##parametric
##parent
##part
##partite
##parts
##pase
##pass
##path
##pati
##patial
##patient
##patients
##pc
##pcr
##pd
##pdm
##pe
##pec
##pecial
##pecies
##pecific
##pective
##ped
##pel
##pen
##pep
##per
##pers
##person
##pes
##pez
##pf
##pg
##ph
##pha
##phal
##phaly
##phan
##pharm
##phase
##phen
##phi
##phia
##phosph
##phosphate
##phy
##pi
##pid
##piece
##pin
##ping
##pins
##pip
##piratory
##pis
##pit
##pital
##pite
##pl
##place
##plane
##planned
##plant
##plantation
##plasia
##plastic
##play
##plc
##ple
##plen
##pler
##pleural
##plex
##plot
##plus
##pm
##pn
##po
##po4
##point
##points
##pol
##pon
##pons
##ponse
##pop
##por
##port
##ported
##porting
##ports
##pos
##position
##positive
##pot
##power
##pox
##pp
##pp4
##pped
##pper
##pping
##pps
##ppv
##pr
##pray
##pre
##pread
##prech
##pred
##pres
##pret
##pri
##pring
##print
##printing
##prints
##prising
##pro
##prob
##process
##produc
##production
##prom
##prop
##prot
##protected
##protein
##ps
##psy
##pt
##ptic
##ption
##ptions
##ptosis
##pts
##punkt
##put
##pv
##py
##pyr
##q
##q1
##qc
##qi
##qing
##ql
##qol
##qq
##qr
##qs
##qu
##quad
##qual
##quar
##que
##quer
##ques
##quest
##quet
##quette
##quier
##quil
##quilib
##quin
##quine
##quinol
##quist
##quoise
##r
##r1
##r2
##ra
##raction
##ractionated
##rad
##rag
##rait
##ral
##rals
##ram
##ran
##rance
##rane
##ranean
##rang
##rank
##rant
##rants
##raph
##ras
##rat
##rate
##rated
##rates
##ratic
##ration
##rations
##raum
##ravel
##rb
##rc
##rd
##re
##rea
##reactivity
##read
##reading
##ready
##reak
##reaktion
##ream
##reas
##reat
##reatment
##rec
##reci
##recip
##recogn
##rect
##red
##reduc
##ree
##reek
##reen
##rees
##ref
##reg
##regn
##regular
##reh
##reib
##reich
##rein
##rel
##related
##relation
##relations
##rell
##rella
##rem
##rement
##ren
##rence
##rene
##rent
##rep
##repar
##reports
##repres
##represented
##requ
##res
##resh
##resistant
##resp
##respons
##responsiveness
##ress
##ressed
##ressing
##ression
##ressive
##rest
##ret
##rete
##reten
##retion
##retro
##rett
##reval
##revir
##rew
##rex
##rey
##rez
##rg
##rh
##rhe
##ri
##ria
##riage
##rial
##rian
##rib
##ric
##rica
##rical
##rice
##ricetin
##rich
##richt
##rick
##ricult
##rid
##rie
##rieben
##ried
##rief
##rier
##riers
##ries
##rig
##right
##rij
##rik
##ril
##rile
##rim
##rin
##rine
##ring
##rio
##rip
##ript
##ris
##risk
##ritic
##ritin
##riting
##ritis
##rium
##rix
##rm
##rn
##rna
##rnas
##ro
##roach
##road
##rob
##robi
##robial
##roblast
##roblasts
##roc
##rocal
##rocess
##rocy
##rocyt
##rocyte
##rocytes
##rocytic
##rod
##roduc
##roduce
##roductive
##rof
##rofen
##roff
##rofloxacin
##rog
##rogen
##rogenesis
##rogenic
##rogens
##rogl
##roid
##rol
##role
##rolif
##roliferative
##rolimus
##roline
##rolith
##roll
##rolled
##rolog
##rology
##roly
##rom
##romb
##rombi
##rome
##romed
##romised
##romycin
##ron
##ronectin
##roni
##ront
##rontal
##room
##rooms
##rop
##ropathy
##roper
##roph
##rophic
##rophil
##rophin
##rophot
##rophy
##rophyl
##rophylaxis
##ropic
##ropo
##roportion
##ropri
##rops
##ropyl
##ropylene
##ror
##ros
##roscop
##roscopic
##roscopy
##rose
##rosis
##rosp
##rospinal
##ross
##rost
##rosy
##rot
##rote
##rotection
##rotective
##rotein
##roteins
##rotic
##rough
##rought
##round
##rounds
##roup
##rous
##rov
##rovascular
##rovirus
##row
##rowing
##rows
##rowth
##rox
##roxy
##roz
##rp
##rr
##rs
##rschein
##rsfs
##rt
##ru
##rug
##rum
##rup
##rupt
##rus
##rv
##ry
##ryst
##s
##s1
##s2
##sa
##sacchar
##saccharide
##saccharides
##sc
##sch
##sd
##se
##sen
##ser
##set
##sf
##sg
##sh
##shows
##si
##side
##sin
##sins
##sis
##ski
##sm
##so
##so4
##soft
##son
##sour
##sourcing
##sp
##space
##spec
##species
##specific
##ss
##ssen
##sson
##st
##sta
##stad
##stadt
##stan
##stand
##standing
##star
##stat
##state
##static
##station
##ste
##stein
##steine
##stellung
##stem
##sten
##ster
##stm
##sto
##stock
##stoff
##ston
##stone
##str
##stream
##strom
##struc
##struct
##structural
##structured
##stry
##sts
##stud
##style
##ständ
##stör
##störungen
##su
##sv
##t
##t1
##t2
##t3
##ta
##taag
##taat
##table
##tag
##tagt
##tail
##tain
##taining
##tainment
##tal
##tc
##tctt
##te
##tebr
##tech
##ted
##tedly
##tee
##teed
##teen
##tees
##tef
##tegr
##teil
##teilung
##temp
##temper
##ten
##teness
##tening
##tens
##tention
##ter
##tera
##terase
##terdam
##tered
##tering
##terior
##teris
##term
##termin
##terminal
##tern
##terna
##ternal
##terror
##ters
##tes
##test
##teur
##teurs
##tex
##text
##tez
##tf
##th
##thal
##that
##the
##theless
##ther
##therap
##therapie
##therapy
##thern
##thers
##thi
##thing
##thood
##thromb
##thrombin
##thrombotic
##through
##ths
##thy
##ti
##tia
##tial
##tian
##tib
##tible
##tic
##tica
##tical
##tically
##ticals
##ticas
##tice
##tices
##tick
##tico
##ticos
##tics
##ticular
##tid
##tide
##tidine
##tie
##tier
##tiert
##ties
##tif
##tific
##tification
##tifications
##tified
##tifs
##tify
##tig
##tige
##tigen
##tigkeit
##tigt
##tigung
##tii
##tijd
##tik
##tika
##til
##tile
##tiles
##tility
##till
##tim
##time
##times
##timore
##timulated
##timulation
##timulatory
##tin
##tina
##tinal
##tine
##ting
##tinguish
##tinib
##tins
##tinum
##tion
##tional
##tioned
##tions
##tious
##tip
##tipation
##tique
##tiques
##tir
##tis
##tisch
##tische
##tischen
##tischer
##tise
##tish
##tism
##tists
##tit
##tite
##titer
##tition
##titis
##titude
##titution
##tium
##tiv
##tiva
##tive
##tively
##tiven
##tiveness
##tives
##tivier
##tivierung
##tivity
##tivität
##tivo
##tization
##tizing
##tl
##tle
##tling
##tm
##to
##tom
##tomas
##ton
##tons
##took
##top
##tp
##tr
##tra
##trag
##train
##trained
##tral
##tran
##trand
##tranded
##trans
##transferase
##transferases
##transplant
##tras
##trate
##trated
##tration
##traumatic
##tre
##treated
##tree
##tri
##trials
##tric
##tricted
##trim
##trin
##tron
##tronic
##truct
##trum
##trust
##try
##ts
##tsch
##tt
##ttt
##tttct
##tttgg
##tttgtt
##tttt
##tu
##tub
##tum
##ture
##tures
##turn
##tuzumab
##tv
##tw
##ty
##typ
##type
##tz
##tþ
##u
##ua
##ual
##ually
##uan
##uary
##uate
##uated
##uates
##uating
##uation
##ub
##uba
##ubated
##ubation
##ube
##uber
##uberculosis
##ubes
##ubicin
##ubiqu
##ubiquitin
##uble
##ublic
##ubs
##ubstit
##uc
##uccess
##uce
##uch
##uche
##ucher
##uchi
##uchs
##ucht
##ucid
##ucine
##ución
##uck
##ucker
##ucks
##ucl
##ucle
##uclear
##uclein
##ucleotid
##ucleotide
##ucleotides
##uclide
##uclidean
##uct
##uction
##uctive
##ud
##uda
##ude
##uded
##uden
##udes
##udi
##udin
##udine
##uding
##udio
##udo
##ue
##ued
##uel
##uent
##uents
##uer
##ues
##uese
##uesta
##uez
##uf
##ufact
##ufe
##ufen
##uff
##ufs
##ug
##uge
##ugg
##ugh
##ught
##ughter
##ugin
##ugu
##uh
##uhan
##ui
##uin
##uine
##uing
##uir
##uis
##uish
##uistic
##uit
##uitary
##uits
##uity
##uj
##uk
##uke
##uker
##uki
##ukt
##uktion
##ul
##ula
##ulae
##ulaire
##ulant
##ulants
##ular
##ulary
##ulas
##ulate
##ulated
##ulates
##ulating
##ulation
##ulations
##ulative
##ulator
##ulators
##ulatory
##uld
##ule
##uled
##ulence
##ulent
##uler
##ules
##ulex
##ulf
##ulfan
##ulfon
##uli
##ulin
##uling
##ulins
##ulinum
##ulitis
##ulizumab
##ull
##ulla
##ullary
##ulmonary
##ulo
##ulos
##ulose
##ulous
##ulph
##uls
##ulse
##ulsion
##ulsions
##ulsive
##ult
##ultation
##ulties
##ults
##ultural
##ulture
##ultured
##ulum
##ulus
##uly
##um
##uma
##umab
##uman
##umann
##umar
##umarin
##umatic
##umb
##umber
##ume
##umen
##ument
##uments
##umi
##umin
##uminal
##umm
##umn
##ump
##umps
##umption
##umptions
##umptive
##ums
##un
##una
##unc
##unct
##unction
##unctions
##unctiv
##unctive
##uncture
##und
##unde
##unden
##under
##unding
##unds
##une
##ung
##ungen
##ungin
##ungs
##ungunya
##unic
##unicip
##unk
##unkt
##unn
##uns
##unt
##unted
##unting
##unya
##uous
##up
##uperv
##upervised
##upp
##uppe
##uppen
##ups
##upt
##upta
##upyv
##ur
##ura
##urable
##ural
##urally
##uran
##urance
##urane
##urate
##uration
##urative
##urb
##urch
##ure
##urea
##ured
##urell
##uren
##ures
##uresis
##uretic
##urf
##urg
##urgical
##uri
##uria
##uric
##uries
##urin
##urine
##uring
##urious
##uris
##uristic
##urities
##urity
##urium
##urk
##urn
##uro
##uron
##uronic
##urop
##urp
##urr
##urred
##urring
##urry
##urs
##urse
##urt
##urus
##urv
##urve
##urveillance
##ury
##us
##usal
##usc
##uscular
##use
##used
##uses
##ush
##usia
##using
##usion
##usions
##usive
##usively
##uson
##usp
##uss
##ussen
##ussion
##ussions
##ussis
##ust
##ustal
##usted
##ustion
##ustr
##ustration
##ustry
##ut
##uta
##utable
##utan
##utaneous
##utation
##utations
##ute
##uted
##utely
##uten
##uter
##uters
##utes
##uth
##uthor
##uti
##util
##uting
##ution
##utions
##utive
##uto
##utory
##utral
##utri
##utrition
##uts
##utz
##uu
##uur
##uv
##uvant
##uvate
##uve
##uw
##ux
##uximab
##uy
##uyen
##uz
##uze
##uzumab
##uzz
##ués
##v
##v1
##v2
##va
##vable
##vac
##vacc
##vaccinated
##val
##valent
##vall
##vallen
##vals
##van
##vant
##var
##vas
##vascular
##vasive
##vastatin
##vation
##vd
##ve
##vec
##ved
##vef
##vel
##veland
##velop
##veloped
##vely
##vement
##ven
##veness
##venous
##vent
##vention
##ventional
##veolar
##ver
##verage
##veratrol
##vere
##verm
##vern
##vers
##versagen
##verse
##versely
##version
##vert
##verted
##verty
##very
##ves
##vest
##vey
##vhd
##vi
##vial
##vic
##vid
##vidad
##vidin
##vie
##vier
##view
##viewe
##viii
##vile
##ville
##vin
##ving
##vinyl
##vious
##vir
##viral
##virales
##viridae
##viron
##virulence
##virulent
##virus
##viruses
##vis
##vity
##vix
##vo
##vol
##vp
##vr
##vre
##vs
##w
##wa
##wal
##walk
##wand
##war
##ward
##wards
##ware
##was
##wash
##water
##wave
##way
##ways
##wd
##we
##wean
##weaning
##weed
##week
##ween
##weg
##wege
##wegen
##weigh
##weight
##weis
##weise
##weisen
##well
##welling
##wen
##wend
##wendung
##wer
##were
##wers
##wert
##wes
##west
##western
##wf
##wh
##whel
##where
##while
##wi
##wich
##wick
##wid
##wide
##width
##wie
##wij
##wijkingen
##win
##wir
##wirkungen
##wise
##wit
##with
##withstanding
##wn
##wo
##wood
##word
##work
##works
##worm
##worms
##wort
##worth
##worthy
##wr
##ws
##wt
##x
##x1
##x10
##x2
##x3
##xc
##xi
##xia
##xim
##ximab
##xime
##xin
##xiv
##xp
##xt
##xts
##xual
##xv
##xx
##xy
##y
##ya
##yal
##yama
##yan
##yang
##yard
##yc
##ycardia
##ych
##ycin
##ycl
##ycle
##ycles
##yclic
##ycline
##yclovir
##yco
##yd
##yday
##ye
##year
##yel
##yer
##yg
##ygen
##yi
##ying
##yl
##ylamide
##ylase
##ylate
##ylated
##ylation
##yle
##yles
##yleth
##yletic
##ylic
##yll
##ylo
##ylob
##ylobacter
##ylon
##ylox
##ylv
##ylvania
##ym
##ymb
##yme
##ymethyl
##ymp
##ymptomatic
##yn
##ynam
##ynamic
##ynaptic
##ynchron
##yne
##ynth
##yo
##yon
##yp
##ype
##ypert
##yph
##ypox
##ypsin
##ypt
##ypti
##yr
##yrate
##yre
##yrene
##yrin
##yroid
##yroidism
##ys
##yse
##ysi
##ysis
##ysm
##yst
##ystem
##ystems
##yster
##ystic
##yt
##ytes
##yth
##ythm
##ythmias
##yv
##yx
##yz
##z
##za
##zak
##zation
##zc
##ze
##zed
##zeich
##zeichnet
##zeigt
##zeit
##zeitig
##zek
##zel
##zellen
##zen
##zens
##zentr
##zept
##zer
##zes
##zess
##zh
##zhou
##zi
##zid
##zie
##zig
##zin
##zine
##zing
##zione
##zip
##zo
##zoek
##zol
##zolid
##zone
##zt
##zu
##zung
##zv
##zy
##zym
##zyme
##zymes
##zz
##zü
##zünd
##¢
##£
##¤
##¥
##¦
##¨
##©
##ª
##¬
##­
##®
##®c
##¯
##°
##°c
##°f
##±
##±0
##±1
##±2
##±3
##²
##³
##´
##µ
##¸
##¹
##º
##ºc
##¼
##½
##¾
##×
##×10
##×g
##ß
##ßnahmen
##à
##á
##ác
##álisis
##án
##ás
##ática
##â
##ã
##ão
##ä
##äch
##ächst
##äd
##äf
##äg
##ägt
##äh
##ähr
##äl
##äll
##älle
##ällen
##ält
##äm
##ämie
##än
##änd
##änder
##äng
##är
##äre
##ären
##äs
##ät
##ätz
##äß
##å
##æ
##ç
##ção
##è
##ème
##ène
##ènes
##ère
##ères
##ès
##é
##éc
##éd
##ée
##ées
##ég
##él
##ém
##émic
##émie
##én
##équ
##ér
##érapie
##éri
##érie
##érieure
##érieux
##és
##ét
##ê
##ë
##ële
##ën
##ì
##í
##ía
##ían
##ías
##íc
##ífic
##ín
##ís
##î
##ï
##ð
##ñ
##ño
##ños
##ò
##ó
##óg
##ón
##ós
##ô
##ôle
##õ
##ö
##öglich
##öl
##ölker
##ön
##ör
##ös
##öse
##ösen
##öß
##÷
##ø
##ù
##ú
##ún
##û
##ü
##über
##üc
##ück
##ücks
##ücksich
##üg
##üh
##ühr
##ühren
##ührt
##ührung
##üll
##ün
##üns
##ür
##üss
##üt
##ütz
##ý
##þ
##ÿ
##ā
##ă
##ą
##ć
##ĉ
##č
##ď
##đ
##ē
##ė
##ę
##ě
##ĝ
##ğ
##ĥ
##ĩ
##ī
##į
##ı
##ĵ
##ĸ
##ł
##ń
##ň
##ō
##ő
##œ
##ŕ
##ř
##ś
##ŝ
##ş
##š
##ũ
##ū
##ů
##ŵ
##ŷ
##ź
##ż
##ž
##ƌ
##ƒ
##ƚ
##ƞ
##ƶ
##ǎ
##ǐ
##ǒ
##ǫ
##ǻ
##ȃ
##ȕ
##ș
##ț
##ȳ
##ɑ
##ɛ
##ɣ
##ɵ
##ɸ
##ʋ
##ʹ
##ʼ
##˂
##˃
##ˆ
##ˇ
##ˊ
##˘
##˙
##˚
##˚c
##˛
##˜
##˝
##́
##̂
##̃
##̄
##̅
##̇
##̈
##̸
##͑
##͒
##͓
##͔
##ʹ
##ͻ
##ͼ
##΄
##α
##α1
##α2
##β
##β1
##β2
##βcd
##γ
##δ
##ε
##ζ
##η
##θ
##ι
##κ
##κb
##λ
##μ
##μl
##μm
##ν
##ξ
##ο
##π
##ρ
##ς
##σ
##τ
##υ
##φ
##χ
##ψ
##ω
##ϑ
##ϒ
##ϕ
##ϖ
##ϩ
##ϫ
##ϭ
##ϯ
##ϱ
##ϳ
##ϵ
##а
##б
##в
##г
##д
##е
##ж
##з
##и
##й
##к
##л
##м
##н
##о
##п
##р
##с
##т
##у
##ф
##х
##ц
##ч
##ш
##щ
##ы
##ь
##э
##ю
##я
##ѕ
##і
##ј
##њ
##յ
##ն
##ס
##ע
##ؠ
##أ
##ا
##ب
##ة
##ت
##ح
##د
##ر
##س
##ط
##ع
##ف
##ق
##ك
##ل
##م
##ن
##ه
##و
##ي
##ܴ
##ܵ
##ݐ
##ࣙ
##ଝ
##௧
##ሺ
##ሻ
##᭹
##ḋ
##ḟ
##ḡ
##ṁ
##ṃ
##ṅ
##ṇ
##ṗ
##ṙ
##ṡ
##ṣ
##ṭ
##ṽ
##ẋ
##ẏ
##ẑ
##ẽ
##ọ
##ỹ
##ᾱ
##​
##‫
##‬
##⁄
##⁡
##⁢
##⁰
##⁹
##₂
##€
##₹
##⃗
##℃
##ℎ
##ℏ
##ℑ
##ℒ
##ℓ
##ℕ
##℘
##ℙ
##ℛ
##ℜ
##ℝ
##™
##ℰ
##ℳ
##ℵ
##ℶ
##ⅆ
##⅓
##ⅰ
##ⅱ
##ⅲ
##ⅳ
##←
##↑
##→
##→∞
##↓
##↔
##↗
##↘
##↦
##↵
##⇀
##⇐
##⇒
##⇔
##∀
##∂
##∃
##∅
##∆
##∇
##∈
##∉
##∊
##∏
##∑
##∑i
##−
##−1
##−2
##−μ
##∓
##∕
##∖
##∗
##∘
##∙
##√
##∝
##∞
##∣
##∥
##∧
##∨
##∩
##∪
##∫
##∶
##∼
##≃
##≅
##≈
##≐
##≔
##≜
##≠
##≡
##≤
##≥
##≦
##≧
##≪
##≫
##≲
##≺
##≻
##⊂
##⊆
##⊇
##⊑
##⊓
##⊔
##⊕
##⊗
##⊙
##⊤
##⊥
##⊴
##⊵
##⋂
##⋃
##⋄
##⋅
##⋆
##⋖
##⋗
##⋮
##⋯
##⋱
##⌜
##⌟
##⌬
##⌽
##⍺
##⏟
##␣
##␤
##␥
##␦
##①
##②
##③
##④
##⑤
##ⓡ
##─
##│
##░
##■
##□
##▪
##▫
##▲
##△
##▵
##▸
##►
##◊
##○
##●
##◦
##◯
##★
##☐
##♀
##♂
##♦
##♭
##✓
##✕
##❏
##❖
##❚
##➔
##➢
##⟶
##⧸
##⩽
##⩾
##⪯
##⪰
##い
##が
##し
##た
##て
##で
##と
##な
##に
##の
##は
##る
##を
##ス
##一
##上
##下
##不
##与
##且
##严
##个
##中
##临
##为
##主
##之
##也
##了
##二
##于
##亡
##人
##他
##以
##们
##会
##传
##但
##位
##低
##住
##体
##作
##使
##例
##保
##值
##儿
##免
##入
##全
##公
##共
##关
##其
##具
##内
##冠
##况
##减
##凝
##出
##分
##切
##别
##到
##制
##前
##力
##功
##加
##动
##包
##化
##区
##医
##升
##危
##原
##参
##及
##反
##发
##受
##变
##可
##史
##合
##同
##后
##吸
##员
##呼
##和
##咳
##因
##国
##在
##地
##均
##型
##基
##增
##复
##外
##多
##大
##天
##如
##子
##存
##学
##定
##实
##家
##对
##导
##小
##少
##就
##展
##属
##工
##巴
##常
##干
##平
##年
##并
##床
##应
##度
##建
##异
##当
##影
##心
##必
##态
##急
##性
##患
##情
##意
##感
##成
##我
##或
##所
##手
##抗
##护
##持
##指
##损
##据
##接
##提
##支
##改
##放
##数
##断
##新
##方
##无
##日
##时
##明
##是
##显
##更
##最
##月
##有
##期
##未
##本
##术
##机
##来
##板
##果
##染
##查
##标
##核
##检
##次
##正
##此
##死
##毒
##比
##气
##氧
##水
##治
##注
##活
##流
##测
##液
##淋
##清
##激
##炎
##点
##热
##物
##特
##状
##率
##现
##理
##生
##用
##疗
##疫
##疾
##病
##症
##瘤
##癌
##白
##的
##皮
##目
##相
##研
##确
##示
##离
##种
##科
##程
##究
##第
##等
##管
##类
##系
##素
##组
##细
##经
##结
##统
##考
##者
##而
##聚
##肺
##肿
##胞
##胸
##能
##自
##至
##致
##药
##蛋
##血
##行
##表
##要
##规
##解
##计
##诊
##调
##身
##转
##较
##达
##过
##这
##进
##通
##道
##部
##酶
##酸
##重
##量
##长
##门
##间
##防
##阳
##降
##院
##除
##险
##隔
##需
##非
##预
##风
##验
##高
##다
##로
##사
##에
##을
##의
##이
##자
##지
##하
##
##
##
##
##
##
##
##
##
##
##
##
##
##
##
##
##
##
##
##
##
##
##
##
##
##
##
##
##
##
##
##
##
##
##
##
##
##
##
##
##
##
##
##
##
##
##
##
##
##
##
##
##
##
##
##
##
##
##
##
##
##
##
##
##
##
##
##
##
##
##
##
##
##
##
##
##ﬁ
##ﬂ
##﻿
##＜
##＞
##～
##�
##𝑓
##𝒩
##𝜃
##𝜖
$
%
&
'
(
)
*
+
,
-
.
/
0
00
000
0000
0001
0002
0003
0005
001
002
003
004
005
006
007
008
009
01
010
011
012
013
014
015
016
017
018
019
02
020
021
022
023
024
025
026
027
028
029
03
030
032
033
035
037
04
045
048
05
06
07
08
09
1
10
100
1000
10000
1007
101
1016
102
103
104
105
106
107
108
109
10a
10th
10x
10−
11
110
1100
1101
111
112
113
114
1146
115
116
117
118
119
11a
11th
12
120
1200
121
122
123
124
125
126
127
128
129
12p
12pt
12th
13
130
131
132
133
134
135
136
137
1371
138
139
13c
14
140
141
142
143
144
145
146
147
148
149
14th
15
150
1500
151
152
153
154
155
156
157
158
159
15th
16
160
1600
161
162
163
164
1640
165
166
167
168
169
16s
16th
17
170
171
172
173
174
175
176
177
178
179
17a
18
180
1800
181
182
183
184
185
186
187
188
189
18f
18s
19
190
1900
191
1918
1919
192
1920
193
1930
194
1940
195
1950
1950s
1953
1956
1957
1958
1959
196
1960
1960s
1961
1962
1963
1964
1965
1966
1967
1968
1969
197
1970
1970s
1971
1972
1973
1974
1975
1976
1977
1978
1979
198
1980
1980s
1981
1982
1983
1984
1985
1986
1987
1988
1989
199
1990
1990s
1991
1992
1993
1994
1995
1996
1997
1998
1999
19th
1a
1ab
1b
1c
1d
1e
1f
1g
1h
1m
1n
1r
1ra
1s
1st
1x
1×
1×10
1α
1β
1−
1∶
2
20
200
2000
2000s
2001
2002
2003
2003a
2003b
2004
2004a
2004b
2005
2005a
2005b
2006
2006a
2006b
2007
2007a
2007b
2008
2008a
2008b
2009
2009a
2009b
201
2010
2010a
2010b
2011
2011a
2012
2012a
2012b
2013
2013a
2013b
2014
2014a
2014b
2015
2015a
2015b
2016
2016a
2016b
2017
2017a
2017b
2018
2018a
2018b
2019
2019a
2019b
202
2020
2020a
2020b
2020c
2021
203
2030
204
205
2050
206
207
208
209
20th
20°c
21
210
2100
211
212
213
214
215
216
217
218
219
21st
22
220
221
222
223
224
225
226
227
228
229
229e
23
230
231
232
233
234
235
236
237
238
239
24
240
241
242
243
244
245
246
247
248
249
24h
25
250
2500
251
252
253
254
255
256
257
258
259
25th
25°c
26
260
261
262
263
264
265
266
267
268
269
27
270
271
272
273
274
275
276
277
278
279
28
280
281
282
283
284
285
286
287
288
289
29
290
291
292
293
293t
294
295
296
297
298
299
2a
2b
2c
2d
2e
2f
2g
2h
2i
2j
2k
2m
2n
2nd
2p
2r
2s
2x
2×
2−
3
30
300
3000
301
302
303
304
305
306
307
308
309
30th
30°c
31
310
311
312
313
314
315
316
317
318
319
31st
32
320
321
322
323
324
325
326
327
328
329
33
330
331
332
333
334
335
336
337
338
339
34
340
341
342
343
344
345
346
347
348
349
35
350
351
352
353
354
355
356
357
358
359
35s
36
360
361
362
363
364
365
366
367
368
369
37
370
372
373
374
375
376
377
378
37uc
37°c
38
380
381
382
384
385
386
387
388
389
38°c
39
390
393
394
395
396
398
3a
3b
3c
3cl
3clpro
3cpro
3d
3e
3f
3g
3h
3j
3m
3p
3rd
3s
3t3
3x
4
40
400
4000
401
402
404
405
406
407
408
409
40s
41
410
412
413
414
415
416
417
418
42
420
422
425
426
43
430
435
44
440
45
450
451
454
46
460
47
470
48
480
488
49
490
492
4a
4b
4c
4d
4e
4f
4g
4h
4th
4°c
5
50
500
5000
501
50°c
51
510
512
518
52
520
525
53
530
54
540
55
550
555
55°c
56
560
57
570
58
580
588
59
590
594
5a
5b
5c
5d
5e
5f
5g
5h
5p
5th
5x
5°c
5×10
6
60
600
6000
60°c
61
62
620
625
627
63
630
64
640
647
65
650
66
660
67
68
680
69
69pt
6a
6b
6c
6d
6e
6f
6g
6h
6j
6m
6r
6th
7
70
700
7000
705
70°c
71
72
720
72°c
73
74
740
75
750
7500
76
77
774
78
79
7a
7b
7c
7d
7e
7th
8
80
800
8000
80°c
81
82
83
84
85
850
86
87
88
89
8a
8b
8c
8d
8th
9
90
900
91
92
93
94
94°c
95
95°c
96
97
978
98
99
999
99m
9a
9b
9th
:
;
<
=
>
?
@
[
[CLS]
[MASK]
[PAD]
[SEP]
[UNK]
\
]
^
_
`
a
a0
a1
a1111111111
a2
a20
a3
a4
a5
a549
a59
a6
a71
aa
aaa
aac
aad
aag
aan
aant
aantal
aap
aas
aat
aav
ab
aband
abandon
abandoned
abb
abbott
abbrevi
abbreviated
abbreviations
abc
abcam
abd
abdom
abdomen
abdominal
aber
aberrant
abg
abi
abilities
ability
abiotic
abl
ablation
able
abn
abnorm
abnormal
abnormalities
abnormality
abnormally
abo
abol
abolish
abolished
abor
aborig
aboriginal
abort
abortion
abortions
about
above
abovementioned
abr
abras
abroad
abrog
abrogated
abrupt
abs
abscess
abscesses
absence
absent
absenteeism
absol
absolute
absolutely
absorb
absorbance
absorbed
absorbing
absorption
absorptive
abstr
abstract
abstraction
abstracts
abund
abundance
abundances
abundant
abundantly
abuse
ac
aca
acad
academia
academic
academics
academy
acanth
acc
accel
acceler
accelerate
accelerated
accelerates
accelerating
acceleration
accent
accep
accept
acceptability
acceptable
acceptance
accepted
accepting
acceptor
access
accessed
accessibility
accessible
accessing
accession
accessory
accid
accident
accidental
accidents
acclim
accommod
accommodate
accommodation
accomp
accompan
accompanied
accompanies
accompany
accompanying
accomplish
accomplished
accord
accordance
according
accordingly
accoun
account
accountability
accountable
accounted
accounting
accounts
accr
accred
accreditation
accredited
accum
accumulate
accumulated
accumulates
accumulating
accumulation
accur
accuracy
accurate
accurately
accus
acd
ace
ace2
acei
aceis
acet
acetaminophen
acetate
acetic
acetone
acetonitrile
acetyl
acetylated
acetylation
acetylcholine
acg
ach
ache
aches
achie
achievable
achieve
achieved
achievement
achievements
achieves
achieving
acid
acidic
acidification
acidosis
acids
acinar
acinet
acinetobacter
acknow
acknowled
acknowledg
acknowledge
acknowledged
acknowledgement
acknowledging
aclf
acm
acous
acoustic
acp
acqu
acquire
acquired
acquiring
acquisition
acr
acron
acronym
across
acs
act
acted
acth
acti
actin
acting
action
actionable
actions
activ
activate
activated
activates
activating
activation
activator
activators
active
actively
activities
activity
actor
actors
acts
actu
actual
actually
acuity
acup
acute
acutely
acyclic
acyclovir
acyl
ad
ad5
ada
adam
adam17
adamant
adams
adap
adapt
adaptability
adaptable
adaptation
adaptations
adapted
adapter
adapting
adaptive
adaptor
adc
adcc
add
added
addic
addiction
adding
addition
additional
additionally
additive
additives
address
addressed
addresses
addressing
adds
ade
adem
además
aden
adenine
adeno
adenocarcin
adenocarcinoma
adenoma
adenosine
adenoviral
adenovirus
adenoviruses
adequ
adequacy
adequate
adequately
adg
adh
adher
adhere
adhered
adherence
adherent
adhering
adhes
adhesion
adhesive
adip
adipocytes
adiponectin
adipose
adj
adjacency
adjacent
adju
adjunct
adjunctive
adjus
adjust
adjusted
adjusting
adjustment
adjustments
adjuv
adjuvant
adjuvanted
adjuvants
adm
adminis
administer
administered
administering
administr
administrated
administration
administrations
administrative
administrators
admission
admissions
admit
admitted
adoles
adolescence
adolescent
adolescents
adop
adopt
adopted
adopting
adoption
adoptive
adopts
adp
adpr
adr
adren
adrenal
adrenergic
ads
adsorb
adsorbed
adsorption
adul
adult
adulthood
adults
adv
advance
advanced
advancement
advancements
advances
advancing
advant
advantage
advantageous
advantages
advax
advent
adventi
adver
advers
adversarial
adverse
adversely
adversity
advertis
advertising
advice
advis
advisable
advise
advised
advisory
advoc
advocacy
advocate
advocated
advocates
ae
aec
aecopd
aed
aedes
aeg
aegypti
aer
aeration
aerial
aerobic
aerodynamic
aerosol
aerosolization
aerosolized
aerosols
aerugin
aeruginosa
aes
aesth
aesthetic
aeti
aetiological
aetiology
af
afeb
afebrile
afect
aff
affairs
affect
affected
affecting
affective
affects
afferent
affili
affiliated
affiliation
affiliations
affin
affinities
affinity
affirm
afflicted
afford
affordable
afforded
affym
affymetrix
afghan
afghanistan
afm
afor
aforementioned
afp
afra
afraid
afric
africa
african
after
aftermath
afterno
afternoon
afterward
afterwards
ag
aga
again
against
agar
agarose
agc
age
aged
ageing
agencies
agency
agenda
agent
agents
ages
ageusia
agg
aggl
agglutin
agglutination
agglutinin
aggr
aggrav
aggravate
aggravated
aggravation
aggreg
aggregate
aggregated
aggregates
aggregation
aggress
aggression
aggressive
agil
agile
agilent
aging
agitation
agn
agnps
ago
ago2
agon
agonist
agonists
agp
agps
agr
agre
agree
agreed
agreement
agreements
agrees
agricult
agricultural
agriculture
agro
ags
agt
aguda
agvhd
ah
ahead
ahmed
ahr
ai
aic
aid
aided
aids
aigu
ail
aim
aimed
aiming
aims
ains
ainsi
air
airborne
aircr
aircraft
airflow
airline
airlines
airport
airports
airspace
airway
airways
ais
ait
aiv
aj
ak
aka
akaike
aki
akin
akt
aktu
akute
akuten
al
ala
alanine
alar
alarm
alarming
alarms
alb
albeit
alber
alberta
albicans
albopictus
albumin
alc
alcoh
alcohol
alcoholic
alcohols
ald
aldehyde
aldehydes
aldosterone
aldr
aldrich
ale
alecto
alem
alemtuzumab
aler
alert
alerts
alex
alexa
alexander
alf
alfa
alg
algae
alge
algebra
algebraic
alger
alginate
algor
algorith
algorithm
algorithmic
algorithms
algun
algunos
ali
alien
align
aligned
aligning
alignment
alignments
alike
aliment
aliphatic
aliqu
aliquot
aliquoted
aliquots
alive
alk
alkal
alkaline
alkaloid
alkaloids
alkyl
all
alla
allantoic
alle
alleged
allele
alleles
allelic
allem
allen
aller
allerdings
allerg
allergen
allergens
allergic
allergies
allergy
allevi
alleviate
alleviated
alleviating
allgem
allgemein
alli
alliance
allied
allo
alloc
allocate
allocated
allocating
allocation
allogeneic
allograft
allografts
alloster
allosteric
allow
allowed
allowing
allows
almost
alone
along
alongside
alop
alopecia
alors
alp
alph
alpha
alphab
alphabet
alphacoronavirus
alphavirus
alphaviruses
already
alri
als
also
alt
alta
alter
alteration
alterations
altered
altering
altern
alternate
alternating
alternative
alternatively
alternatives
alters
alth
although
altitude
alto
altogether
altr
alum
alumin
aluminum
alv
alve
alveolar
alveoli
always
alz
alzheimer
am
amantadine
amaz
amazon
amb
amber
ambient
ambig
ambiguity
ambiguous
ambion
ambitious
ambul
ambulance
ambulatory
amc
amd
amel
amelior
ameliorate
ameliorated
amen
amenable
amend
amended
amendments
americ
america
american
americans
americas
amers
amersham
ami
amid
amide
amidst
amik
amikacin
amil
amin
amine
amines
amino
aminoac
aminoglycoside
aminoglycosides
aminopeptidase
aminotrans
aminotransferase
amiod
amiodarone
aml
amm
ammation
ammatory
ammonia
ammonium
amn
amniotic
amoe
among
amongst
amorph
amorphous
amount
amounts
amox
amoxicillin
amp
amph
amphib
amphip
amphipathic
amphiph
amphoter
amphotericin
ampicillin
ampk
ampl
ample
amplic
amplicon
amplicons
amplification
amplifications
amplified
amplifies
amplify
amplifying
amplitude
amps
amr
ams
amsbsy
amsfonts
amsmath
amss
amssymb
amsterdam
amy
amylase
amyloid
amyloidosis
an
ana
anaemia
anaer
anaerob
anaerobes
anaerobic
anaesth
anaesthesia
anaesthetic
anakinra
anal
analges
analgesia
analgesic
analgesics
analog
analogous
analogs
analogue
analogues
analogy
analy
analys
analyse
analysed
analyses
analysing
analysis
analysts
analyte
analytes
analytic
analytical
analytically
analytics
analyz
analyze
analyzed
analyzer
analyzes
analyzing
anamn
anap
anaphyl
anaphylaxis
anast
anastom
anastomosis
anat
anatom
anatomic
anatomical
anatomy
anc
anca
ances
ancest
ancestor
ancestors
ancestral
ancestry
anch
anchor
anchored
anchoring
ancient
ancillary
and
andere
anderen
anders
andersen
anderson
andre
androgen
android
anecd
anecdotal
anemia
anesth
anesthesi
anesthesia
anesthesiologists
anesthetic
anesthetized
aneur
aneurys
aneurysm
aneurysms
anf
ang
ange
angel
angeles
anger
angi
angii
angina
angio
angioedema
angiogenesis
angiogenic
angiography
angiot
angiotens
angiotensin
angle
angles
anh
anhui
anhyd
anhydr
anhydrous
anim
animal
animals
anion
anionic
anis
ank
ankara
ankle
ann
anne
annealed
annealing
annex
annexin
annot
annotated
annotation
annotations
announce
announced
announcement
announcements
annual
annually
anom
anomal
anomalies
anomalous
anomaly
anonym
anonymity
anonymized
anonymous
anoph
anopheles
anore
anorexia
anosmia
another
anova
ans
answer
answered
answering
answers
ant
antag
antagon
antagonism
antagonist
antagonistic
antagonists
antagonize
antarc
ante
anteced
anten
antenatal
anter
anterior
anth
anthr
anthrac
anthracis
anthrax
anthrop
anthropogenic
anti
antib
antibacterial
antibi
antibio
antibiotic
antibiotics
antibió
antibod
antibodies
antibody
antic
anticancer
anticip
anticipate
anticipated
anticipation
anticoag
anticoagulant
anticoagulants
anticoagulation
anticodon
antidep
antidepress
antidi
antif
antifung
antifungal
antig
antigen
antigenic
antigenically
antigenicity
antigens
antih
antihist
antihistamines
antihypert
antihypertensive
antiinflammatory
antikör
antikörper
antim
antimal
antimalarial
antimic
antimicrobial
antimicrobials
antimyc
antine
antioxid
antioxidant
antioxidants
antip
antipar
antiparallel
antiphosph
antiphospholipid
antipl
antiplatel
antiplatelet
antiproliferative
antips
antipsych
antipyre
antiretro
antiretroviral
antis
antisense
antiseptic
antisera
antiserum
antit
antithrombin
antitr
antitum
antitumor
antivir
antiviral
antivirals
anton
anwendung
anx
anxi
anxiety
anxious
any
anyone
anything
anywhere
anz
ao
aom
aor
aort
aorta
aortic
ap
ap2
apa
apache
apar
apart
apc
apcs
ape
apelin
apes
apex
aph
apheresis
api
apical
apl
apmv
apn
apnea
apo
apob
apobec
apod
apoe
apolip
apolipoprotein
apopt
apoptosis
apoptotic
app
appar
apparatus
apparent
apparently
appeal
appealing
appear
appearance
appearances
appeared
appearing
appears
append
appendic
appendicitis
appendix
appeti
appetite
apple
applic
applicability
applicable
applicants
application
applications
applied
applies
apply
applying
appoint
appointed
appointment
appointments
appra
apprais
appraisal
appreci
appreciable
appreciate
appreciated
appreciation
appro
approach
approached
approaches
approaching
appropri
appropriate
appropriately
appropriateness
approval
approved
approx
approxim
approximate
approximated
approximately
approximation
approximations
apps
apr
april
apro
après
aps
apt
aptamer
aptamers
aptt
aq
aqu
aquac
aquaculture
aquatic
aque
aqueous
ar
ara
arab
arabia
arabian
arabic
arabid
arabidopsis
arabin
arach
arachid
arachidonic
arb
arbe
arbeit
arbeits
arbidol
arbitr
arbitrarily
arbitrary
arbovirus
arboviruses
arbs
arc
arch
archae
archaea
archit
architect
architectural
architecture
architectures
archive
archived
arctic
ard
ards
are
area
areas
aren
arena
arenavirus
arenaviruses
arf
arf1
arg
argenti
argentina
argin
arginine
argu
arguably
argue
argued
argues
arguing
argument
arguments
arh
ari
arid
arima
aris
arise
arisen
arises
arising
arith
arithmetic
ariz
arizona
ark
arm
armed
armon
armonk
arms
army
arn
aro
arom
aromatic
arose
around
arous
arousal
arr
arrang
arranged
arrangement
arrangements
array
arrays
arres
arrest
arrested
arrh
arrhyth
arrhythmia
arrhythmias
arri
arrival
arrivals
arrive
arrived
arriving
arrow
arrows
ars
arsen
arsenic
art
artef
artefacts
artem
artemisin
artemisinin
arter
arteri
arterial
arteries
arteritis
arterivirus
arteriviruses
artery
artes
artesun
arth
arthral
arthralgia
arthritis
arthrop
arthroplasty
arthropod
arthropods
arti
artic
article
articles
articular
articulated
artif
artifact
artifacts
artificial
artificially
artis
arts
arv
aryl
as
asa
asbest
asbestos
asc
ascending
ascertain
ascertained
ascertainment
ascites
ascorb
ascorbic
ascribed
asct
asd
asean
aseptic
asf
asfv
ash
asia
asian
asians
aside
ask
asked
asking
asks
asl
asm
asn
asoci
asp
aspar
asparag
asparagine
aspart
aspartate
aspartic
aspect
aspects
asperg
aspergill
aspergillosis
aspergillus
aspir
aspirate
aspirated
aspirates
aspiration
aspirin
ass
assay
assayed
assays
assemb
assemble
assembled
assemblies
assembling
assembly
asser
assess
assessed
assesses
assessing
assessment
assessments
asset
assets
assign
assigned
assigning
assignment
assignments
assigns
assim
assist
assistance
assistant
assistants
assisted
assisting
assists
associ
associate
associated
associates
associating
association
associations
assort
assoz
assozi
assum
assume
assumed
assumes
assuming
assumption
assumptions
assurance
assure
assured
ast
asteris
asterisks
asth
asthma
asthmatic
asthmatics
astr
astro
astrocyte
astrocytes
astrovirus
astroviruses
asy
asyl
asylum
asymm
asymmetric
asymmetry
asymp
asympt
asympto
asymptomatic
asymptotic
asymptotically
asynchron
asynchronous
así
at
at1
at1r
at2
at2r
ata
atax
ataxia
atc
atcc
ate
atel
atelectasis
atem
atención
atf
atf4
atf6
atg
atg5
ath
athens
ather
atheroscler
atherosclerosis
atherosclerotic
athletes
ati
atl
atlanta
atlantic
atlas
atm
atmosph
atmosphere
atmospheric
atom
atomic
atoms
atopic
atopy
atp
atpase
atr
atrial
atrophy
ats
att
attach
attached
attaching
attachment
attack
attacks
attain
attained
attainment
atte
attemp
attempt
attempted
attempting
attempts
atten
attend
attendance
attended
attendees
attending
attention
attenu
attenuate
attenuated
attenuates
attenuating
attenuation
attit
attitude
attitudes
attr
attract
attracted
attracting
attraction
attractive
attri
attrib
attributable
attribute
attributed
attributes
attribution
attrition
atyp
atypical
au
auc
auch
aud
audi
audience
audiences
audio
audit
auditory
auf
aufgrund
auft
auftreten
aug
augment
augmentation
augmented
augmenting
august
aument
aumento
aun
aunp
aunps
aunque
aur
aure
aureus
aus
ausc
auscultation
ausg
ausreich
auss
aussi
aust
austin
austr
austral
australia
australian
austria
aut
auth
authentic
author
authorities
authority
authorization
authorized
authors
authorship
autism
auto
autoantibod
autoantibodies
autoantibody
autoc
autocla
autocor
autocorrelation
autocrine
autod
autodock
autoimm
autoimmun
autoimmune
autoimmunity
autologous
autom
automata
automated
automatic
automatically
automation
auton
autonomic
autonomous
autonomy
autophag
autophagic
autophagosome
autophagosomes
autophagy
autops
autopsies
autopsy
autor
autoradi
autore
autoreactive
autoreg
autoregressive
autosomal
autre
autres
autumn
aux
auxiliary
auß
av
ava
avail
availability
available
avant
ave
avec
aven
avenue
avenues
aver
average
averaged
averages
averaging
aversion
averted
avi
avian
aviation
avid
avidin
avidity
avirulent
avium
avoid
avoidance
avoided
avoiding
avoids
aw
awa
awaiting
awake
award
awarded
aware
awareness
away
ax
axes
axi
axial
axillary
axis
axon
axonal
axons
ay
az
aza
azath
azathiop
azathioprine
azide
azithromycin
azt
años
aβ
b
b0
b1
b12
b16
b19
b2
b3
b4
b5
b6
b7
ba
bab
babesia
babies
baby
bac
bach
bacilli
bacillus
back
backb
backbone
backed
backg
background
backgrounds
backward
backyard
bact
bacter
bacteraemia
bacteremia
bacteri
bacteria
bacterial
bactericidal
bacteriological
bacteriophage
bacteriophages
bacterium
bacteroides
bacul
baculovirus
baculoviruses
bad
baf
baff
bag
bags
bai
baical
bail
bait
bak
baker
bakter
bal
balance
balanced
balancing
balb
balf
ball
balloon
balt
baltimore
bam
bamhi
ban
band
bands
bandwidth
bang
bangl
bangladesh
bank
banking
banks
banned
bans
bap
bar
barb
barc
barcel
barcelona
barcode
bare
barely
bari
bariatric
baric
baricitinib
bark
barley
barn
barr
barre
barrel
barri
barrier
barriers
barré
bars
bart
barth
barton
bartonella
bas
basal
base
based
basel
baseline
baselines
basement
bases
basic
basically
basin
basis
basolateral
basophil
basophils
bass
bat
batch
batches
batcov
bath
bats
batter
battery
battle
baumann
baumannii
bav
bax
bay
bayes
bayesian
bb
bbb
bc
bca
bcg
bcl
bcov
bcr
bcs
bcv
bd
bdv
be
bead
beads
beam
bean
bear
bearing
bears
beast
beat
beatmung
beats
beau
beaud
beaudette
bec
became
because
beck
becker
beckman
beclin
become
becomes
becoming
becton
bed
bedding
bede
bedeut
bedeutung
beding
beds
bedside
bee
beef
been
bees
beet
bef
before
beg
began
begin
beginn
beginning
begins
begr
begun
beh
beha
behal
behalf
behand
behandeling
behandelt
behandlung
behave
behavi
behavior
behavioral
behaviors
behaviour
behavioural
behaviours
behind
bei
beij
beijing
beim
being
beings
beispiel
bek
bel
belang
belangrij
belast
belg
belgian
belgium
belie
belief
beliefs
believe
believed
believes
bell
belong
belonged
belonging
belongs
below
belt
ben
bench
benchmark
benchmarks
bend
bending
bene
beneath
benef
benefi
benefici
beneficial
benefit
benefited
benefits
beng
benign
benj
benjamin
bent
bentham
benthamiana
benz
benzene
benzod
benzodiazep
benzyl
beob
beobacht
beobachtet
ber
bere
bereich
bereits
berg
berlin
bern
bert
berücksich
bes
besch
beschrieben
beside
besides
besmet
besonders
bess
best
beste
besteht
besti
bestimm
bet
beta
betacoronavirus
betacoronaviruses
betr
betre
betroff
better
between
betweenness
bev
bever
beverages
bew
bey
beyond
bez
bf
bfa
bg
bh
bhk
bhv
bi
bias
biased
biases
bib
bibli
bic
bicarbonate
bid
bidirectional
bien
bif
bifid
bifur
bifurcation
big
bigger
biggest
bigl
bigr
bij
bijvo
bijvoorbeeld
bil
bilateral
bilaterally
bilayer
bilayers
bild
bile
biliary
bilirubin
bill
billion
billions
bim
bin
binary
bind
binder
binders
binding
binds
binomial
bins
bio
bioactive
bioactivity
bioaer
bioaerosol
bioaerosols
bioanaly
bioassay
bioavailability
biob
biobank
bioc
biochem
biochemical
biochemistry
biocomp
biocompatibility
biocon
biod
biodef
biodegrad
biodegradable
biodistribution
biodiversity
bioedit
bioeth
biof
biofil
biofilm
biofilms
biogenesis
bioinform
bioinformatic
bioinformatics
biol
biolabs
biolegend
biolog
biologic
biological
biologically
biologicals
biologics
biologists
biology
biolum
biom
biomark
biomarker
biomarkers
biomass
biomedical
biomolecules
biomérieux
biop
biopharm
biophys
biophysical
biops
biopsies
biopsy
bior
biorad
biore
bioreactor
biorxiv
bios
biosafety
bioscience
biosciences
biosecurity
biosens
biosensor
biosensors
biosynth
biosynthesis
biosynthetic
biosystems
biot
biotech
biotechn
biotechnology
bioterror
bioterrorism
biotin
biotinylated
biow
bip
bipar
bipartite
biph
biphasic
bipolar
bir
bird
birds
birmingham
birth
births
bis
bish
bisher
bism
bismuth
bit
bitco
bitcoin
bite
bites
biting
bits
biv
bivalent
bivariate
bj
bk
bkv
bl
bl21
bla
black
blacks
bladder
blame
bland
blank
blast
blastn
ble
bleach
bleed
bleeding
bleib
blended
bleomycin
blij
blind
blinded
blinding
blindness
blo
block
blockade
blockage
blockchain
blocked
blocker
blockers
blocking
blocks
bloed
blood
bloodstream
bloody
bloom
blot
blots
blotting
blow
blu
blue
bluepr
bluet
bluetooth
blunt
blut
bm
bmd
bmi
bmp
bms
bmt
bmv
bn
bnabs
bnp
bo
boar
board
boarding
boards
boars
bob
boc
bocavirus
bod
bodies
bodily
body
boe
bog
boh
bohv
boiled
boiling
bol
bold
bols
bolus
bomb
bon
bona
bond
bonded
bonding
bonds
bone
bones
bonfer
bonferroni
bony
book
books
boole
boolean
boos
boost
boosted
booster
boosting
boots
bootstr
bootstrap
bootstrapping
bor
bord
border
borderline
borders
bordet
bordetella
bored
born
borna
borne
borrel
borrelia
borrow
bortez
bortezomib
bos
bost
boston
bot
both
bots
bott
bottle
bottlen
bottleneck
bottlenecks
bottles
bottom
botulinum
bound
boundaries
boundary
bounded
bounds
bour
bov
bovine
bovis
bow
bowel
box
boxes
boy
boys
bp
bpa
bpd
bpm
bps
br
bra
brach
brack
brad
bradford
brady
bradycardia
bradykinin
brain
brains
brainstem
bran
branch
branched
branches
branching
brand
brands
bras
brass
braun
braz
brazil
brazilian
brca
brd
bre
breach
bread
breadth
break
breakdown
breaking
breakpoint
breakpoints
breaks
breakthrough
breast
breastf
breastfeeding
breath
breathe
breathing
breaths
bred
breed
breeders
breeding
breeds
bres
bri
brid
bridge
bridges
bridging
brief
briefly
bright
brilli
bring
bringing
brings
brit
britain
british
brl
bro
broad
broadband
broadc
broadcast
broaden
broadening
broader
broadly
broiler
broilers
broke
broken
brom
bromide
bromo
bron
bronch
bronchi
bronchial
bronchiectasis
bronchiolar
bronchioles
bronchiolitis
bronchiseptica
bronchitis
bronchoalveolar
bronchoconstr
bronchodil
bronchodilator
bronchodilators
bronchopneumonia
bronchopulmonary
bronchoscopy
bronchus
bronqu
brook
brooks
broth
brought
brown
brows
browser
brsv
bru
bruc
bruce
brucella
brucellosis
bruker
brun
brush
brv
bs
bsa
bsc
bse
bsi
bsl
bst
bst2
bt
btc
btov
btv
bu
bub
bubble
bubbles
buc
buccal
buch
buck
bud
budding
budget
budgets
buds
buff
buffalo
buffer
buffered
buffers
bug
buil
build
building
buildings
builds
built
bul
bulb
bulg
bulk
bulky
bull
bullet
bun
bund
bundes
bundle
bundles
buny
buoy
bup
bur
burden
burdens
bure
bureau
bureauc
burgd
burgdorfer
burgdorferi
buried
burk
burkholder
burkholderia
burn
burne
burnetii
burning
burnout
burns
burs
burst
bus
bush
bushme
bushmeat
business
businesses
busulfan
busy
but
butler
butter
button
butyl
buy
buying
bv
bvd
bvdv
bw
bx
by
bypass
bystand
bystander
bz
bzw
c
c0
c1
c12
c18
c1q
c2
c3
c3h
c4
c5
c57
c57bl
c5a
c6
c7
c8
c9
ca
ca2
caa
cab
cabin
cabinet
cac
cach
caco
cacy
cad
cada
cadaver
cadherin
caec
caes
caesarean
caf
caffe
cag
cage
cages
cai
cal
calc
calcd
calcification
calcine
calcineurin
calcium
calculate
calculated
calculates
calculating
calculation
calculations
calculus
calend
calendar
calf
calibr
calibrate
calibrated
calibration
calic
calicivirus
caliciviruses
calif
californ
california
call
called
calling
calls
calm
calor
calp
calu
calves
calving
cam
cambod
cambodia
cambridge
came
camel
camelids
camels
camera
cameras
camero
cameroon
camostat
camp
campaign
campaigns
campbell
camps
campus
campylobacter
can
canada
canadian
canal
canc
cancel
canceled
cancellation
cancelled
cancer
cancers
cand
candid
candida
candidate
candidates
candidiasis
canine
canis
cann
cannab
cannabis
cannot
cannula
cannulation
canonical
cant
cantile
cantilever
cantly
cao
cap
capabilities
capability
capable
capac
capacities
capacity
cape
capill
capillaries
capillary
capita
capital
capitalism
capped
capping
caps
capsid
capsids
capsular
capsule
capsules
capt
captive
capture
captured
captures
capturing
car
caracter
carb
carbam
carbap
carbapen
carbapenem
carbapenems
carbohyd
carbohydrate
carbohydrates
carbon
carbonate
carbonyl
carbox
carboxy
carboxyl
carboxylate
carboxylic
carboxyp
carc
carcass
carcasses
carcin
carcinogenesis
carcinogenic
carcinoma
carcinomas
card
cardi
cardiac
cardio
cardiogenic
cardiology
cardiomy
cardiomyocytes
cardiomyopathy
cardiopulmonary
cardiores
cardiorespiratory
cardiovascular
cards
care
cared
career
careers
careful
carefully
caregi
caregiver
caregivers
carers
cargo
carib
caribbean
caries
caring
carl
carlo
carls
carlsbad
carn
carniv
carnivores
carol
carolina
carotid
carp
carr
carrage
carrageenan
carri
carriage
carried
carrier
carriers
carries
carry
carrying
cars
cart
cartil
cartilage
cartr
cartridge
carv
cary
cas
cas13
cas9
casc
cascade
cascades
case
casei
casein
cases
cash
caso
casos
casp
caspase
caspases
cass
cassette
cassettes
cast
casual
casualties
casualty
cat
catabolism
catal
catalase
catalog
cataly
catalys
catalysis
catalyst
catalysts
catalytic
catalytically
catalyze
catalyzed
catalyzes
catar
cataract
catarr
catarrhal
catarrhalis
catast
catastroph
catastrophe
catastrophic
catch
catching
catchment
catech
catechol
categ
categor
categorical
categories
categorised
categorization
categorize
categorized
category
catenin
cater
cath
cathep
cathepsin
cathepsins
catheter
catheterization
catheters
cation
cationic
cations
cats
catter
cattle
cauc
caucasian
caud
caudal
caught
caus
causa
causal
causality
causation
causative
cause
caused
causes
causing
cauti
caution
cautious
cautiously
cav
cava
cavanagh
cave
caveat
caveats
caveolae
caveolin
cavitation
cavities
cavity
cb
cbc
cbd
cbf
cbp
cbr
cbs
cbt
cc
cc50
cca
ccc
ccd
cch
cchf
cchfv
cci
ccl
ccl2
ccl3
ccl5
ccov
ccp
ccr
ccr2
ccr5
ccr7
ccs
cct
ccv
cd
cd103
cd11
cd11b
cd11c
cd13
cd14
cd147
cd15
cd16
cd163
cd19
cd2
cd20
cd200
cd209
cd25
cd26
cd27
cd28
cd3
cd34
cd38
cd4
cd40
cd40l
cd44
cd45
cd45ra
cd46
cd56
cd62
cd62l
cd68
cd69
cd8
cd80
cd81
cd86
cd9
cd95
cdc
cdcl3
cdcs
cdi
cdk
cdna
cdnas
cdot
cdots
cdr
cdr3
cds
cdv
ce
cea
ceacam
ceacam1
ceased
cec
cecal
cecum
ced
cef
cefep
cefepime
cefota
cefotaxime
ceft
ceftazid
ceftazidime
ceftri
ceftriax
ceftriaxone
ceiling
cel
cele
celebr
celiac
cell
cells
cellular
cellules
cellulitis
cellulose
cem
cement
cens
censored
census
cent
center
centered
centers
centi
centr
central
centrality
centralized
centrally
centre
centred
centres
centric
centrifug
centrifugal
centrifugation
centrifuge
centrifuged
centro
centros
centuries
century
cep
cephal
cephalospor
cephalosporin
cephalosporins
cer
ceramide
cere
cereb
cerebellar
cerebellum
cerebral
cerebrospinal
cerebrovascular
cerevis
cerevisiae
certain
certainly
certains
certainty
certific
certificate
certificates
certification
certified
cerv
cervical
cervix
ces
cesarean
cess
cessation
cet
cette
cf
cfa
cfd
cfi
cfp
cfr
cfs
cftr
cfu
cg
cga
cgas
cgg
cgi
cgmp
cgvhd
ch
ch2
ch3
cha
chad
chadox1
chag
chagas
chain
chains
chair
chall
challeng
challenge
challenged
challenges
challenging
cham
chamber
chambers
champ
chan
chance
chances
chand
chang
change
changed
changes
changing
chann
channel
channels
chaos
chaotic
chap
chaper
chaperone
chaperones
chapter
chapters
char
character
characteris
characterisation
characterise
characterised
characteristic
characteristically
characteristics
characterization
characterize
characterized
characterizes
characterizing
characters
charge
charged
charges
charitable
charles
chart
charts
chase
chat
chb
chd
che
cheap
cheaper
chec
check
checked
checking
checklist
checkpoint
checks
cheetah
cheetahs
chel
chem
chemical
chemically
chemicals
chemilum
chemiluminescence
chemiluminescent
chemistry
chemo
chemoattr
chemoattractant
chemok
chemokine
chemokines
chemoprophylaxis
chemot
chemotactic
chemotaxis
chemotherapeutic
chemotherapy
chen
cheng
cher
chest
chew
chez
chf
chi
chic
chicago
chick
chicken
chickenpox
chickens
chicks
chief
chik
chikungunya
chikv
chil
child
childcare
childhood
children
chile
chills
chim
chimer
chimera
chimeras
chimeric
chimerism
chimpan
chimpanze
chimpanzee
chimpanzees
chin
china
chinese
chip
chips
chir
chiral
chirop
chirurg
chit
chitin
chitosan
chlamyd
chlamydia
chlamydophila
chlor
chloramphenicol
chlorhexidine
chloride
chlorine
chloro
chloroform
chloroplast
chloroquine
chn
cho
choi
choice
choices
chol
cholang
cholangi
cholangitis
cholec
cholecyst
cholera
cholerae
cholest
cholestasis
cholester
cholesterol
choline
cholinergic
chond
chong
chongqing
choose
choosing
chop
chor
chori
chorio
choriomeningitis
choroid
chose
chosen
chou
chow
chpv
chr
christ
christi
christian
chrom
chromat
chromatin
chromatographic
chromatography
chromosomal
chromosome
chromosomes
chron
chronic
chronically
chronische
chronological
chrys
chu
chun
chung
church
chv
chws
chym
chymotrypsin
ci
cia
cic
cid
cidofovir
ciency
cient
cig
cigar
cigarette
cigarettes
cili
cilia
ciliary
ciliated
cim
cin
cinc
cinnam
cip
ciprofloxacin
cir
circ
circadian
circle
circles
circovirus
circrnas
circuit
circuits
circular
circulate
circulated
circulating
circulation
circulatory
circum
circumference
circumst
circumstance
circumstances
circumvent
cirrh
cirrhosis
cirrhotic
cis
cispl
cisplatin
cisterna
cit
citation
citations
cite
cited
cities
citiz
citizen
citizens
citr
citrate
city
civ
civet
civets
civil
civilian
cj
ck
ckd
cl
cla
clad
clade
clades
claim
claimed
claiming
claims
clamp
clar
clara
clarification
clarified
clarify
clarithromycin
clarity
clark
clash
class
classes
classic
classical
classically
classification
classifications
classified
classifier
classifiers
classify
classifying
classroom
classrooms
clath
clathrin
claudin
clause
clauses
clav
clavul
clavulanate
clay
clc
cld
cle
clean
cleaned
cleaner
cleaning
cleanliness
cleans
clear
clearance
cleared
clearer
clearing
clearly
cleav
cleavage
cleave
cleaved
cleaves
cleaving
clec
cleft
cler
clerks
click
client
clients
clim
climate
climates
climatic
clin
clind
clindamycin
clinic
clinical
clinically
clinicaltrials
clinician
clinicians
clinics
clinique
clip
cll
clo
cloac
cloacal
clock
clon
clonal
clone
cloned
clones
cloning
clont
clontech
clos
close
closed
closely
closeness
closer
closest
closing
clostr
clostridium
closure
closures
clot
cloth
clothes
clothing
clots
clotting
cloud
cloz
clozapine
clp
clsi
club
clue
clues
clus
clustal
clustalw
cluster
clustered
clustering
clusters
clín
clínica
clínico
cm
cm2
cma
cme
cmh
cmh2o
cmi
cml
cmp
cmr
cms
cmv
cm−1
cn
cnn
cns
cnt
cnts
co
co2
coa
coag
coagul
coagulase
coagulation
coagulopathy
coal
coales
coalescent
coalition
coarse
coast
coastal
coat
coated
coating
coatings
coats
cob
cobal
cobas
coc
cocaine
cocc
coccidi
coch
cochr
cochrane
cock
cocktail
cod
code
coded
codes
coding
codon
codons
coe
coefficient
coefficients
coerc
coevolution
coex
coexist
coexistence
coexisting
coexp
coexpression
cof
cofactor
cofactors
coff
coffee
cogn
cognate
cognition
cognitive
coh
cohen
coher
coherence
coherent
cohes
cohesion
cohort
cohorts
coil
coiled
coils
coinc
coincide
coincided
coincident
coincides
coined
coinf
coinfected
coinfection
coinfections
col
colch
colchicine
cold
colds
cole
coli
colic
coliform
colistin
colitis
coll
collabor
collaborate
collaborating
collaboration
collaborations
collaborative
collaborators
collagen
collapse
collapsed
collateral
colle
colleag
colleagues
collect
collected
collecting
collection
collections
collective
collectively
collects
college
colleges
collins
collision
colloidal
colo
colocal
colocalization
colocalized
colomb
colombia
colon
colonial
colonic
colonies
colonisation
colonization
colonize
colonized
colonoscopy
colony
color
colorado
colorectal
colored
colorimetric
colors
colostr
colostral
colostrum
colour
coloured
colum
columbia
column
columnar
columns
com
coma
comb
combat
combating
combin
combination
combinations
combinator
combinatorial
combine
combined
combines
combining
combustion
come
comes
comfort
comfortable
coming
comm
command
comme
commence
commenced
commencement
commens
commensal
comment
commentary
commented
comments
commerc
commerce
commercial
commercially
commission
commit
commitment
commitments
committed
committee
committees
commod
commodities
commodity
common
commonest
commonly
commons
commun
communal
communic
communicable
communicate
communicated
communicating
communication
communications
communities
community
commuting
como
comorbid
comorbidities
comorbidity
comp
compact
compan
companies
companion
company
compar
comparability
comparable
comparative
comparatively
comparator
compare
compared
compares
comparing
comparison
comparisons
compart
compartment
compartmental
compartments
compass
compassion
compassionate
compatibility
compatible
compelling
compens
compensate
compensated
compensation
compensatory
compet
compete
competence
competencies
competency
competent
competi
competing
competit
competition
competitive
competitiveness
competitors
compiled
compl
complained
complaint
complaints
comple
complement
complementarity
complementary
complementation
complemented
complements
complet
complete
completed
completely
completeness
completing
completion
complex
complexed
complexes
complexities
complexity
compli
compliance
compliant
complic
complicate
complicated
complicates
complicating
complication
complications
comply
complying
compon
component
components
compos
composed
composite
composites
composition
compositions
compound
compounded
compounds
compr
compreh
comprehension
comprehensive
comprehensively
compress
compressed
compression
comprise
comprised
comprises
comprising
comprom
compromise
compromised
compromising
compuls
compulsory
comput
computation
computational
computationally
computations
compute
computed
computer
computerized
computers
computes
computing
comun
con
conc
concaten
concatenated
conce
conceiv
conceivable
conceived
concentr
concentrate
concentrated
concentrates
concentrating
concentration
concentrations
concept
conception
concepts
conceptual
conceptualization
conceptualized
conceptually
concer
concern
concerned
concerning
concerns
concert
concerted
concl
conclud
conclude
concluded
concludes
concluding
conclusion
conclusions
conclusive
conclusively
concom
concomitant
concomitantly
concordance
concordant
concrete
concurr
concurrent
concurrently
cond
condens
condensation
condensed
condition
conditional
conditioned
conditioning
conditions
condom
conduc
conducive
conduct
conductance
conducted
conducting
conduction
conductive
conductivity
cone
conf
confer
conference
conferences
conferencing
conferred
conferring
confers
confi
confidence
confident
confidential
confidentiality
config
configur
configuration
configurations
confined
confinement
confir
confirm
confirmation
confirmatory
confirmed
confirming
confirms
conflic
conflict
conflicting
conflicts
conflu
confluence
confluency
confluent
confocal
conform
conformation
conformational
conformations
confound
confounded
confounders
confounding
confron
confront
confronted
confused
confusing
confusion
cong
congen
congenital
conges
congestion
congestive
congo
congr
congreg
congress
conj
conjecture
conjug
conjugate
conjugated
conjugates
conjugation
conjunction
conjunctiv
conjunctiva
conjunctival
conjunctivitis
conn
connect
connected
connectedness
connectic
connecticut
connecting
connection
connections
connective
connectivity
connects
conoc
cons
conscious
consciousness
consecu
consecutive
consecutively
consensus
consent
consented
consequ
consequence
consequences
consequent
consequently
conserv
conservation
conservative
conservatively
conserve
conserved
consider
considerable
considerably
consideration
considerations
considered
considering
considers
consist
consisted
consistency
consistent
consistently
consisting
consists
consolid
consolidated
consolidation
consolidations
consor
consortium
consp
conspic
conspir
conspiracy
const
constant
constantly
constants
constellation
constipation
constit
constitu
constituent
constituents
constitute
constituted
constitutes
constituting
constitution
constitutional
constitutive
constitutively
constr
constrain
constrained
constraint
constraints
construc
construct
constructed
constructing
construction
constructive
constructs
construed
consul
consult
consultant
consultants
consultation
consultations
consulted
consulting
consum
consume
consumed
consumer
consumers
consuming
consumption
cont
contact
contacted
contacting
contacts
contag
contagion
contagious
contain
contained
container
containers
containing
containment
contains
contam
contamin
contaminant
contaminants
contaminate
contaminated
contaminating
contamination
conte
contemp
contempor
contemporary
content
contents
context
contexts
contextual
contig
contigs
contiguous
contin
continent
continental
continents
conting
contingency
contingent
continu
continual
continually
continuation
continue
continued
continues
continuing
continuity
continuous
continuously
continuum
contour
contr
contra
contrac
contract
contracted
contractile
contractility
contracting
contraction
contractions
contracts
contrad
contradic
contradict
contradiction
contradictory
contrain
contraind
contraindic
contraindicated
contraindication
contraindications
contral
contralateral
contrary
contrast
contrasted
contrasting
contrasts
contre
contrib
contribut
contribute
contributed
contributes
contributing
contribution
contributions
contributor
contributors
contro
control
controll
controlled
controller
controlling
controls
controvers
controversial
controversy
conv
conval
convalescence
convalescent
conve
conven
convenience
convenient
convention
conventional
conventionally
conver
converg
converge
convergence
convergent
converges
convers
conversation
conversations
conversely
conversion
convert
converted
converting
converts
convex
convey
convin
convinc
convincing
convol
convolution
convolutional
convulsions
cook
cooking
cool
cooled
cooling
coom
coomassie
coop
cooper
cooperate
cooperation
cooperative
coord
coordinate
coordinated
coordinates
coordinating
coordination
coordinator
cop
copd
cope
copenhagen
copies
coping
copper
copy
copyr
copyright
cor
cord
cords
core
cores
corm
corn
corne
cornea
corneal
corner
cornerstone
corning
coroll
corollary
coron
corona
coronal
coronary
coronavir
coronaviral
coronaviridae
coronavirus
coronaviruses
corp
corpor
corporate
corporation
corporations
corps
corpus
corr
corre
correct
corrected
correcting
correction
corrections
correctly
correctness
correl
correlate
correlated
correlates
correlating
correlation
correlations
corresp
correspond
corresponded
correspondence
corresponding
correspondingly
corresponds
corridor
corro
corrobor
corroborate
corroborated
corrup
corruption
cort
cortex
cortic
cortical
corticoster
corticosteroid
corticosteroids
cortis
cortisol
cory
coryneb
corynebacterium
cos
cosm
cosmetic
cost
costa
costimulatory
costly
costs
cot
cotrans
cotransfected
cott
cotton
cough
coughing
coughs
coul
could
coulter
coun
council
couns
counsel
counseling
counselling
count
counted
counter
counteract
counterfact
counterfactual
countermeas
countermeasures
counterpart
counterparts
counterst
counterstained
counties
counting
countries
country
counts
county
coup
couple
coupled
couples
coupling
cour
cours
course
courses
court
courts
cov
cov2
covalent
covalently
covari
covariance
covariate
covariates
cover
coverage
covered
covering
covers
coverslips
covid
covid19
covs
cow
cowork
coworkers
cows
cox
coxs
coxsackie
coxsackievirus
cp
cpap
cpb
cpc
cpe
cpg
cpi
cpm
cpp
cpr
cps
cpt
cpu
cpv
cq
cr
cr1
cr3022
cra
crack
crackles
cran
crani
cranial
crash
craw
crazy
crc
crcov
crd
cre
cream
creat
create
created
creates
creati
creatin
creatine
creating
creatinine
creation
creative
creativity
creb
cred
credibility
credible
credit
cres
crew
crf
crfk
cri
crick
crim
crime
crimes
criminal
cris
crises
crisis
crispr
criter
criteria
criterion
critic
critical
critically
criticism
criticized
critique
crl
cro
croc
crohn
cron
cronbach
crop
crops
cros
cross
crossed
crosses
crossing
crosslinking
crosso
crossover
crosst
crosstalk
croup
crow
crowd
crowded
crowding
crown
crp
crrt
crs
crt
cru
cruc
crucial
crucially
crude
cruise
crush
crust
cruz
cruzi
cry
cryo
cryop
cryopres
cryopreserved
cryp
crypt
cryptic
cryptococcus
cryptospor
cryptosporidiosis
cryptosporidium
crypts
cryst
crystal
crystall
crystalline
crystallization
crystallized
crystallographic
crystallography
crystals
crón
cs
csa
csf
csfv
csp
csr
css
cst
ct
cta
ctb
ctc
ctd
ctg
ctl
ctla
ctls
ctni
ctp
ctr
cts
ctt
ctx
cu
cuad
cual
cuando
cub
cuba
cubic
cuc
cues
cuff
cui
cul
culex
culling
culmin
culpr
cult
cultiv
cultivated
cultivation
cultural
culturally
culture
cultured
cultures
culturing
cum
cumbers
cumbersome
cumulative
cun
cup
cur
curated
curation
curative
curb
curc
curcumin
cure
cured
curf
curing
curr
currency
current
currently
currents
curric
curricula
curriculum
curtail
curv
curvature
curve
curved
curves
cus
cush
cushion
custom
customer
customers
customized
customs
cut
cutaneous
cutoff
cutoffs
cuts
cutting
cv
cv777
cva
cvb3
cvc
cvd
cvid
cvs
cw
cx
cx3
cxcl
cxcl1
cxcl10
cxcl8
cxcl9
cxcr
cxcr2
cxcr3
cxcr4
cxr
cy
cy3
cy5
cyan
cyanosis
cyber
cyc
cycl
cycle
cycler
cycles
cyclic
cyclin
cycling
cyclization
cyclo
cyclodex
cyclohex
cyclooxygenase
cyclophil
cyclophilin
cyclophosph
cyclophosphamide
cyclospor
cyclosporine
cyl
cylind
cyn
cynom
cynomol
cynomolgus
cyp
cyp3a
cyp3a4
cypa
cys
cys145
cyst
cystatin
cyste
cysteine
cysteines
cystic
cystitis
cysts
cyt
cytochrome
cytok
cytoker
cytokeratin
cytokine
cytokines
cytologic
cytological
cytology
cytolytic
cytomegal
cytomegalovirus
cytometer
cytometric
cytometry
cytopath
cytopathic
cytoplas
cytoplasm
cytoplasmic
cytos
cytosine
cytoskel
cytoskeletal
cytoskeleton
cytosol
cytosolic
cytotox
cytotoxic
cytotoxicity
cz
czech
cél
cα
d
d0
d1
d2
d3
d4
d5
d6
d614
d614g
d68
d7
da
daar
dab
dabei
dac
dad
daegu
daf
dag
dagen
dah
daher
dai
daily
dairy
dak
dako
dal
dall
dalys
dam
damage
damaged
damages
damaging
damit
damp
dampen
damps
dams
dan
danger
dangerous
dangers
daniel
danish
dann
dans
dap
dapi
dar
darby
dark
darm
darun
darunavir
darwin
das
dash
dashboard
dashed
dass
dat
data
datab
database
databases
datas
dataset
datasets
date
dated
daten
dates
dating
datos
daughter
dav
david
davies
davis
daw
dawley
day
days
daytime
dazu
db
dbp
dbs
dbt
dc
dcc
dcm
dcs
dd
ddd
ddx
ddx1
ddx3
de
de3
dea
deacet
dead
deadly
deaf
deal
dealing
deals
dealt
dear
death
deaths
deb
debate
debated
debates
debe
deben
debil
debilitating
debr
debrid
debridement
debrief
debris
debt
dec
decade
decades
decaro
decay
dece
deceased
decel
december
decentr
decentralized
decid
decide
decided
deciding
decipher
decis
decision
decisions
decisive
decl
declar
declaration
declare
declared
declares
decline
declined
declines
declining
decoc
decoction
decoding
decomp
decompens
decompensation
decomposition
decompression
decon
decontam
decontamination
decoup
decoy
decre
decrease
decreased
decreases
decreasing
ded
dedic
dedicated
deduc
deduced
deem
deemed
deep
deeper
deeply
deer
def
default
defe
defect
defective
defects
defence
defend
defens
defense
defenses
defensin
defensins
defensive
defer
deferred
defi
defibr
defibrill
defic
deficiencies
deficiency
deficient
deficit
deficits
defin
define
defined
defines
defining
definite
definitely
definition
definitions
definitive
definitively
defl
deforestation
deform
deformation
deg
degen
degenerate
degeneration
degenerative
degrad
degradation
degrade
degraded
degrades
degrading
degran
degranulation
degree
degrees
degs
deh
dehyd
dehydrated
dehydration
dehydrogen
dehydrogenase
dei
deion
deionized
del
delay
delayed
delaying
delays
dele
deleg
deleted
deleter
deleterious
deleting
deletion
deletions
delhi
deli
delib
deliber
deliberate
deliberately
delicate
deline
delineate
delineated
delir
delirium
deliver
delivered
deliveries
delivering
delivers
delivery
dell
della
delle
delphi
delt
delta
deltacoronavirus
dem
demand
demanding
demands
demarc
dementia
democr
democracy
democratic
demograph
demographic
demographics
demography
demonstr
demonstrate
demonstrated
demonstrates
demonstrating
demonstration
demostr
demyel
demyelinating
demyelination
den
denat
denaturation
denatured
denaturing
dend
dendr
dendrim
dendrimers
dendritic
denen
deng
dengue
denial
denied
denmark
denn
denom
denominator
denote
denoted
denotes
denoting
dens
dense
densely
densit
densities
density
dent
dental
denti
dentistry
dentists
denv
denv2
deox
deoxy
deoxyrib
dep
depar
depart
department
departmental
departments
departure
depend
depended
dependence
dependencies
dependency
dependent
dependently
depending
depends
dephosph
dephosphorylation
depic
depict
depicted
depicting
depicts
deple
deplete
depleted
depleting
depletion
deploy
deployed
deploying
deployment
depos
deposit
deposited
deposition
deposits
depress
depressed
depression
depressive
depri
deprivation
deprived
dept
depth
der
derang
dere
deregulation
deren
deriv
derivation
derivative
derivatives
derive
derived
derives
deriving
derm
dermal
dermat
dermatitis
dermatology
dermis
des
desal
desar
desarroll
desaturation
desc
descending
descent
descr
descri
describ
describe
described
describes
describing
descrip
descript
description
descriptions
descriptive
descriptors
desde
desens
deserve
deserves
desic
design
designated
designation
designed
designing
designs
desirable
desire
desired
desorption
desp
despite
después
desqu
desquam
dest
destabil
destabilization
destabilizing
destin
destination
destinations
destr
destro
destroy
destroyed
destroying
destruction
destructive
det
detach
detached
detachment
detail
detailed
details
detect
detectable
detected
detecting
detection
detections
detector
detectors
detects
detention
deter
deterg
detergent
detergents
deterior
deteriorate
deteriorated
deteriorating
deterioration
determ
determin
determinant
determinants
determination
determinations
determine
determined
determines
determining
deterministic
detox
detoxification
detrim
detrimental
deubiquitin
deut
deutlich
deuts
deutsch
deutschland
deux
dev
devast
devastating
develop
developed
developers
developing
development
developmental
developments
develops
devi
deviation
deviations
device
devices
devise
devised
devoid
devoted
dex
dexamethasone
dext
dextran
dextrose
deze
df
dfa
dfs
dg
dh
dha
dhf
di
dia
diab
diabetes
diabetic
diagn
diagnos
diagnose
diagnosed
diagnoses
diagnosing
diagnosis
diagnosti
diagnostic
diagnostics
diagnostik
diagnós
diagnóstico
diagonal
diagr
diagram
diagrams
dial
dialog
dialogue
dialy
dialysis
dialyzed
diam
diameter
diameters
diamin
diamond
diaph
diaphrag
diaphragm
diaphragmatic
diar
diarr
diarrhe
diarrhea
diarrheal
diarrheic
diarrho
diarrhoea
diarrhoeic
diary
dias
diast
diastere
diastolic
diaz
dib
dic
dicer
dich
dichlor
dichot
dichotom
dichotomous
dick
dickinson
dict
dictate
dictated
diction
dictionary
did
didactic
didn
die
died
diego
dies
diese
diesel
diesem
diesen
dieser
dieses
diet
dietary
diethyl
diets
dif
difer
diferentes
diff
differ
differed
difference
differences
different
differenti
differential
differentially
differentiate
differentiated
differentiating
differentiation
differently
differenz
differing
differs
diffi
diffic
difficile
difficult
difficulties
difficulty
diffraction
diffus
diffuse
diffusion
différ
dig
diges
digest
digested
digestion
digestive
digit
digital
dign
dignity
dihyd
dihydro
dil
dilatation
dilated
dilation
dilemm
dilemma
dilemmas
diluent
dilute
diluted
dilution
dilutions
dim
dimension
dimensional
dimensionality
dimensions
dimer
dimeric
dimerization
dimers
dimethyl
dimin
diminish
diminished
diminishes
diminishing
din
ding
dinucleotide
dioxide
dip
dipeptidyl
diph
diphenyl
diphosphate
diphther
diphtheria
dipl
diplom
diplomacy
dips
dir
dire
direct
directed
directing
direction
directional
directions
directive
directives
directly
director
directors
directs
dirty
dis
disab
disabilities
disability
disabled
disadvant
disadvantage
disadvantaged
disadvantages
disag
disaggreg
disagre
disagree
disagreement
disagreements
disapp
disappear
disappearance
disappeared
disappointing
disassemb
disassembly
disaster
disasters
disc
discard
discarded
discern
disch
discharge
discharged
discharges
discip
discipl
disciplinary
discipline
disciplines
discl
disclose
disclosed
disclosure
disclosures
discol
discom
discomfort
disconn
discontin
discontinuation
discontinue
discontinued
discontinuous
discordant
discount
discour
discouraged
discourse
discover
discovered
discoveries
discovering
discovery
discre
discrep
discrepancies
discrepancy
discrepant
discrete
discretion
discrim
discrimin
discriminant
discriminate
discriminating
discrimination
discriminatory
discuss
discussed
discusses
discussing
discussion
discussions
dise
disease
diseased
diseases
dish
dishes
disinf
disinfect
disinfectant
disinfectants
disinfected
disinfecting
disinfection
disintegr
disj
disjoint
disk
disl
dislocation
dismin
dismiss
dismut
dismutase
disorder
disordered
disorders
disp
dispar
disparate
disparities
disparity
dispens
dispensable
dispensed
dispensing
dispers
dispersal
dispersed
dispersion
displ
displac
displaced
displacement
display
displayed
displaying
displays
displaystyle
dispon
dispos
disposable
disposal
disposed
disposition
disproportion
disproportionate
disproportionately
disreg
disrup
disrupt
disrupted
disrupting
disruption
disruptions
disruptive
disrupts
diss
dissatisf
dissect
dissected
dissection
dissem
disseminate
disseminated
disseminating
dissemination
dissimilar
dissip
dissoci
dissociated
dissociation
dissol
dissolution
dissolved
dist
distal
distance
distances
distancing
distant
distantly
distemper
distension
distill
distilled
distin
distinc
distinct
distinction
distinctive
distinctly
distinguish
distinguishable
distinguished
distinguishes
distinguishing
distorted
distortion
distr
distress
distrib
distribute
distributed
distributing
distribution
distributions
distric
district
districts
disturb
disturbance
disturbances
disturbed
disturbing
disulf
disulfide
dit
dithi
dithiothreitol
diure
diuretics
div
divalent
diver
diverg
diverged
divergence
divergent
divers
diverse
diversification
diversified
diversion
diversity
divertic
divid
divide
divided
divides
dividing
division
divisions
dix
dizz
dizziness
dj
dk
dl
dli
dls
dm
dmd
dmem
dmf
dmp
dms
dmso
dmv
dmvs
dn
dna
dnas
dnase
dnastar
dnn
dnt
dntp
dntps
do
doc
dock
docked
docking
doct
doctor
doctors
docum
document
documentation
documentclass
documented
documenting
documents
dod
dodec
dodecyl
does
doesn
doff
doffing
dog
dogs
doi
doing
doit
dol
doll
dollar
dollars
dom
domain
domains
domes
domestic
domesticated
domin
dominance
dominant
dominate
dominated
dominates
dominating
don
donate
donated
donation
donations
donc
done
dong
donkey
donn
donning
données
donor
donors
dont
door
doors
dop
dopamine
dopaminergic
doppler
dor
dorm
dors
dorsal
dos
dosage
dosages
dose
dosed
doses
dosing
dosis
dot
dots
dotted
doub
double
doubled
doubling
doubt
doubts
doug
dow
down
download
downloaded
downreg
downregulate
downregulated
downregulation
downs
downstream
downward
dox
doxorubicin
doxyc
doxycycline
dozens
dp
dpc
dpi
dpp
dpp4
dpv
dq
dr
draft
drafted
drafting
drag
drain
drainage
draining
drains
dram
dramatic
dramatically
drastic
drastically
draw
drawback
drawbacks
drawing
drawn
draws
drb1
drc
dre
dress
dressing
drew
dri
dried
drift
drills
drink
drinking
drip
drive
driven
driver
drivers
drives
driving
dro
dromed
dromedaries
dromedary
drone
drones
drop
droplet
droplets
dropout
dropped
dropping
drops
dros
drosophila
drought
drs
drug
drugg
drugs
dry
drying
ds
dsa
dsdna
dsm
dsp
dsrna
dsrnas
dss
dt
dtt
du
dual
dub
dublin
dubs
duc
duck
ducks
duct
ductal
ducts
due
dul
dulbec
dulbecco
dumm
dummy
dun
dunn
duoden
duodenal
duodenum
dup
duplex
duplexes
duplicate
duplicated
duplicates
duplication
dur
durability
durable
durante
duration
durations
durch
durchgeführt
during
dus
dust
dut
dutch
duties
duty
dv
dvt
dw
dwell
dwelling
dx
dy
dyad
dye
dyes
dying
dyn
dynam
dynamic
dynamical
dynamically
dynamics
dynamin
dyne
dys
dysbiosis
dysentery
dysfunction
dysfunctional
dysfunctions
dyslipidemia
dysp
dysph
dysphagia
dysplasia
dyspnea
dyspnoea
dysreg
dysregulated
dysregulation
dyst
dystrophin
dystrophy
dz
dé
déc
dép
dévelop
développ
día
días
e
e1
e1a
e2
e3
e4
e5
e6
e7
ea
each
eae
eag
eagle
ear
earlier
earliest
early
earn
earnings
ears
earth
earthqu
earthquake
earthquakes
eas
ease
easier
easily
easing
east
eastern
easy
eat
eating
eav
eb
eben
ebenfalls
ebi
ebioscience
ebna
ebol
ebola
ebolavirus
ebov
ebp
ebs
ebv
ec
ec50
ecc
ecd
ecdc
ece
ecg
ech
echin
echo
echocardi
echocardiogram
echocardiographic
echocardiography
echovirus
ecl
eclip
eclipse
ecm
ecmo
eco
ecological
ecology
econ
econom
economic
economical
economically
economics
economies
economists
economy
ecori
ecos
ecosystem
ecosystems
ecov
ecp
ecs
ect
ectodomain
ectoparas
ectopic
ecu
ecuador
ecz
eczema
ed
edad
edem
edema
edge
edges
edible
edit
edited
editing
edition
editor
editorial
editors
eds
edta
edu
educ
educate
educated
educating
education
educational
educators
edwards
ee
eef
eeg
een
eer
eerste
ef
eff
effect
effecti
effective
effectively
effectiveness
effector
effectors
effects
effek
effet
effi
effic
efficac
efficacious
efficacy
efficiencies
efficiency
efficient
efficiently
effluent
efflux
effort
efforts
effusion
effusions
efs
efsa
eg
egcg
egf
egfp
egfr
egg
eggs
egr
egress
egypt
egypti
egyptian
eh
ehealth
ehr
ehrlich
ehv
ei
eia
eic
eid
eids
eif
eif2
eif2α
eif3
eif4
eif4e
eif4g
eig
eigen
eigenv
eigenval
eigenvalue
eigenvalues
eigh
eight
eighteen
eighth
eighty
eimer
eimeria
ein
eind
eine
einem
einen
einer
eines
einf
eing
einges
eingesetzt
eins
einsatz
einz
einzel
eis
eit
either
ej
ejection
ek
el
elabor
elaborate
elaborated
elaboration
elapsed
elast
elastase
elastic
elasticity
elbow
eld
elder
elderly
ele
elec
elect
elected
election
elective
electr
electric
electrical
electricity
electro
electroc
electrocardi
electrocardiogram
electrochemical
electrode
electrodes
electroly
electrolyte
electrolytes
electrom
electron
electronic
electronically
electronics
electrons
electrop
electroph
electrophore
electrophoresis
electrophoretic
electrophysi
electroporation
electros
electrospray
electrostatic
eleg
elegans
elegant
element
elemental
elementary
elements
elev
elevate
elevated
elevation
elevations
eleven
elf
elic
elicit
elicitation
elicited
eliciting
elicits
elig
eligibility
eligible
elim
eliminate
eliminated
eliminates
eliminating
elimination
elis
elisa
elisas
elisp
elispot
elite
ell
elle
ellip
elmer
elong
elongated
elongation
els
else
elsevier
elsewhere
elu
elucid
elucidate
elucidated
elucidating
elucidation
elusive
eluted
elution
em
ema
email
emails
eman
emb
embargo
embase
embed
embedded
embedding
embeddings
embod
embodied
embol
emboli
embolism
embolization
embr
embrace
embry
embryo
embryon
embryonated
embryonic
embryos
emc
emcv
emerg
emerge
emerged
emergence
emergencies
emergency
emergent
emerges
emerging
emg
emir
emission
emissions
emit
emitted
emm
emo
emodin
emotion
emotional
emotionally
emotions
emp
empathy
empf
empfehl
empfohlen
emph
emphas
emphasis
emphasised
emphasize
emphasized
emphasizes
emphasizing
emphys
emphysema
empir
empiric
empirical
empirically
employ
employed
employee
employees
employer
employers
employing
employment
employs
empow
empower
empowerment
empty
empy
empyema
emr
ems
emt
emuls
emulsion
en
enab
enable
enabled
enables
enabling
enac
enact
enacted
enanti
enc
encaps
encapsid
encapsulated
encapsulation
encephal
encephalitis
encephalomyelitis
encephalopathy
encl
enclosed
encod
encode
encoded
encoder
encodes
encoding
encompass
encompasses
encompassing
encore
encoun
encounter
encountered
encounters
encour
encourage
encouraged
encourages
encouraging
encr
encryp
end
endanger
endangered
ende
endeav
ended
endemic
ending
endo
endoc
endocarditis
endocrin
endocrine
endocyt
endocytic
endocytosis
endogenous
endolys
endomet
endometri
endometrial
endometriosis
endonuclease
endoplasmic
endoribonuclease
endors
endorsed
endos
endoscop
endoscope
endoscopic
endoscopy
endosomal
endosome
endosomes
endoth
endothelial
endothelin
endothelium
endotox
endotoxemia
endotoxin
endotracheal
endou
endovascular
endowed
endpoint
endpoints
ends
enemy
energ
energe
energetic
energies
energy
enf
enfant
enfants
enfer
enfermed
enfermedad
enfermedades
enfor
enforce
enforced
enforcement
enforcing
eng
engage
engaged
engagement
engages
engaging
engender
engine
engineer
engineered
engineering
engineers
engines
england
english
engr
engraft
engraftment
engulf
enh
enhance
enhanced
enhancement
enhancer
enhancers
enhances
enhancing
enj
enjoy
enk
enl
enlarg
enlarged
enlargement
enorm
enormous
enos
enough
enox
enoxaparin
enrich
enriched
enrichment
enrol
enroll
enrolled
enrolling
enrollment
enrolment
ens
ensemb
ensemble
ensuing
ensure
ensured
ensures
ensuring
ent
entail
entails
enter
enteral
entered
enteric
enterica
entering
enteritis
entero
enterobacter
enterobacteriaceae
enteroc
enterococci
enterococcus
enterocolitis
enterocytes
enteropath
enteropathy
enterotox
enterotoxin
enterovirus
enteroviruses
enterpr
enterprise
enterprises
enters
entertainment
enth
enthal
enthus
enthusias
enthusiasm
enti
entire
entirely
entit
entities
entitled
entity
entr
entrance
entre
entrepr
entreprene
entrepreneur
entrepreneurial
entrepreneurs
entrepreneurship
entries
entrop
entropy
entry
ents
entscheid
entsprech
entste
entwick
entwicklung
entzünd
enum
enumerated
enumeration
env
envelop
envelope
enveloped
envelopes
environ
environment
environmental
environmentally
environments
envis
envisaged
envision
enz
enzo
enzootic
enzym
enzymatic
enzymatically
enzyme
enzymes
eo
eos
eosin
eosinophil
eosinophilia
eosinophilic
eosinophils
ep
epa
epac
epec
eph
epi
epic
epicenter
epid
epidemi
epidemic
epidemics
epidemiologic
epidemiological
epidemiologically
epidemiologists
epidemiology
epiderm
epidermal
epidermidis
epidermis
epididym
epidural
epig
epigene
epigenetic
epiglot
epile
epilepsy
epileptic
epinephrine
epis
episod
episode
episodes
episodic
epist
epistemic
epit
epith
epitheli
epithelia
epithelial
epithelium
epitope
epitopes
epiz
epizo
epizootic
epo
epoch
epochs
epp
eppendorf
eps
epsilon
epstein
eq
eqs
equ
equal
equality
equally
equals
equation
equations
equator
equi
equil
equilib
equilibr
equilibrated
equilibration
equilibria
equilibrium
equine
equip
equipment
equipped
equitable
equity
equiv
equival
equivalence
equivalent
equivalents
equivocal
er
era
erad
eradic
eradicate
eradicated
eradication
erd
ere
erent
erf
erfol
erfolg
erfolgen
erfolgt
erforder
erforderlich
erg
ergeb
ergebnisse
ergic
erhö
erhöh
erhöht
eri
eric
erk
erk1
erken
erkrank
erkrankung
erkrankungen
erm
ern
erns
ernstige
ero
eros
erosion
err
erre
erreg
erreger
errone
erroneous
error
errors
ers
erst
ersten
ert
erup
eruption
erw
eryth
erythema
erythemat
erythematosus
erythematous
erythrocyte
erythrocytes
erythroid
erythromycin
erythropo
es
esbl
esc
escal
escalated
escalating
escalation
escap
escape
escher
escherichia
escrt
esi
esophag
esophageal
esophagus
esp
espa
españ
espec
especial
especially
específic
esr
esrd
ess
essence
essenti
essential
essentially
est
esta
estab
establish
established
establishes
establishing
establishment
establishments
estas
estate
este
esteem
ester
esterase
esters
estim
estimate
estimated
estimates
estimating
estimation
estimations
estimator
estimators
estos
estr
estradiol
estrogen
estrus
estudi
estudio
estudios
está
et
eta
etc
etec
eth
ethanol
ether
ethic
ethical
ethically
ethics
ethidium
ethiop
ethiopia
ethn
ethnic
ethnicity
ethyl
ethylene
eti
etiologic
etiological
etiologies
etiology
etoac
etop
etoposide
ets
ett
etwa
eu
eua
euc
euclidean
eug
eukary
eukaryotes
eukaryotic
euler
eup
eur
euro
europ
europa
europe
european
euros
euth
euthan
euthanas
euthanasia
euthanized
ev
ev71
evac
evacuation
evade
evalu
evaluable
evaluate
evaluated
evaluates
evaluating
evaluation
evaluations
evans
evap
evapor
evaporated
evaporation
evasion
evd
even
evening
evenly
event
events
eventual
eventually
ever
every
everyday
everyone
everything
everywhere
evid
evidence
evidenced
evidences
evident
evidently
evoke
evoked
evol
evolution
evolutionarily
evolutionary
evolve
evolved
evolves
evolving
evs
ew
ex
exacerb
exacerbate
exacerbated
exacerbates
exacerbating
exacerbation
exacerbations
exact
exactly
exagger
exaggerated
exam
examination
examinations
examine
examined
examines
examining
examp
example
examples
exams
exanth
exc
exceed
exceeded
exceeding
exceeds
excel
excell
excellence
excellent
except
exception
exceptional
exceptionally
exceptions
excess
excessive
exch
exchang
exchange
exchanged
exchanges
excised
excision
excit
excitation
excited
exciting
excl
exclud
exclude
excluded
excludes
excluding
exclusion
exclusive
exclusively
excre
excreted
excretion
exec
execute
executed
execution
executive
exemp
exempl
exemplified
exer
exerc
exercise
exercised
exercises
exercising
exert
exerted
exertion
exerts
exh
exhal
exhalation
exhaled
exhaus
exhaust
exhausted
exhaustion
exhaustive
exhib
exhibit
exhibited
exhibiting
exhibits
exist
existe
existed
existence
existent
existential
existing
exists
exit
exo
exocytosis
exogenous
exon
exons
exonuclease
exosome
exosomes
exotic
exp
expand
expanded
expanding
expands
expans
expansion
expect
expectancy
expectation
expectations
expected
expector
expectoration
exped
expedite
expedited
expelled
expend
expendit
expenditure
expenditures
expense
expenses
expensive
exper
experi
experience
experienced
experiences
experiencing
experim
experiment
experimental
experimentally
experimentation
experiments
expert
expertise
experts
expiration
expiratory
expired
expl
explain
explained
explaining
explains
explan
explanation
explanations
explanatory
explants
explicit
explicitly
explo
exploit
exploitation
exploited
exploiting
exploits
explor
exploration
exploratory
explore
explored
explores
exploring
explos
explosion
explosive
expon
exponent
exponential
exponentially
export
exported
exports
expose
exposed
exposes
exposing
exposition
exposure
exposures
express
expressed
expresses
expressing
expression
expressions
ext
extant
exten
extend
extended
extending
extends
extension
extensions
extensive
extensively
extent
exterior
extern
external
externally
extin
extinct
extinction
extr
extra
extracellular
extracorporeal
extract
extracted
extracting
extraction
extractions
extracts
extraord
extraordinary
extrap
extrapolated
extrapolation
extrapulmonary
extrav
extravas
extravasation
extre
extrem
extreme
extremely
extremes
extremities
extremity
extrinsic
extubated
extubation
exud
exudate
exudates
exudation
exudative
ey
eye
eyel
eyes
ez
f
f1
f2
f3
f4
f5
fa
fab
fabric
fabricated
fabrication
fabrics
fac
face
facebook
faced
facem
facemask
facemasks
faces
facets
fach
facial
facil
facilit
facilitate
facilitated
facilitates
facilitating
facilitation
facilitators
facilities
facility
facing
facs
fact
factor
factores
factories
factors
factory
facts
facult
faculty
fad
faec
faecal
faecalis
faeces
faecium
fail
failed
failing
fails
failure
failures
fair
faire
fairly
fairness
fait
faith
fak
fake
fal
falc
falciparum
fall
fallen
falling
falls
fals
false
falsely
fam
famil
famili
familial
familiar
familiarity
families
family
famous
fan
fang
fao
fap
far
farm
farmed
farmer
farmers
farming
farms
fas
fasc
fasci
fase
fash
fashion
fasl
fast
fasta
faster
fastest
fasting
fat
fatal
fatalities
fatality
fate
father
fati
fatigue
fatty
fault
fav
favip
favipiravir
favor
favorable
favorably
favored
favoring
favors
favour
favourable
favoured
fb
fbs
fc
fcc
fcov
fcr
fcs
fcv
fcwf
fcγ
fcγri
fd
fda
fdg
fdi
fdr
fe
fear
feared
fears
feas
feasibility
feasible
feat
feature
featured
features
featuring
feb
febr
febrile
february
fec
fecal
feces
fecv
fed
federal
federation
fee
feed
feedback
feeding
feedlot
feeds
feel
feeling
feelings
feels
fees
feet
fehl
fel
feline
felis
fell
fellow
fellows
fellowship
felt
felv
fem
female
females
femin
femoral
fen
feng
fent
fentanyl
fer
feral
ferg
ferguson
ferm
ferment
fermentation
fern
ferr
ferre
ferret
ferrets
ferritin
fertil
fertile
fertility
fes
fest
festiv
festival
fet
fetal
fetus
fetuses
fev
fev1
fever
fevers
few
fewer
ff
ffp
ffp2
ffp3
ffr
ffrs
ffu
fg
fgf
fgl2
fh
fhv
fi
fib
fiber
fibers
fibr
fibre
fibres
fibrill
fibrillation
fibrils
fibrin
fibrinogen
fibrinoly
fibrinolysis
fibrinolytic
fibro
fibrob
fibroblast
fibroblasts
fibronectin
fibros
fibrosis
fibrotic
fibrous
fic
ficoll
fid
fide
fidelity
fie
fieber
fiebre
field
fields
fif
fifteen
fifth
fifty
fig
fight
fighting
figs
figure
figures
fij
fil
filament
filamentous
filaments
file
filed
files
fill
filled
filling
film
filmarray
films
filovirus
filoviruses
filter
filtered
filtering
filters
filtrate
filtration
fimb
fimbri
fimbriae
fin
final
finally
financ
finance
financial
financially
financing
find
finden
finding
findings
finds
fine
fing
finger
fingerprint
fingerprints
fingers
finish
finished
finishing
finite
finland
finn
finnish
fio
fio2
fip
fipv
fir
fire
firefly
fires
firm
firmly
firms
first
firstly
fis
fiscal
fischer
fish
fisher
fishing
fiss
fission
fist
fistula
fit
fitc
fitness
fits
fitted
fitting
fiv
five
fix
fixation
fixed
fixing
fj
fk
fl
flaccid
flag
flagell
flagellin
flank
flanked
flanking
flap
flare
flash
flask
flasks
flat
flatten
flattened
flattening
flav
flaviviridae
flavivirus
flaviviruses
flavon
flavonoid
flavonoids
fle
fleas
flex
flexibility
flexible
flies
flight
flights
flip
flo
floating
flock
flocks
flood
flooding
floods
floor
floors
flor
flora
florida
flour
flow
flower
flowers
flowing
flowjo
flows
flt3
flu
flua
fluc
fluconazole
fluct
fluctu
fluctuating
fluctuation
fluctuations
flud
fludarabine
fluid
fluids
fluor
fluores
fluoresc
fluorescein
fluorescence
fluorescent
fluorescently
fluoride
fluoro
fluorogenic
fluorophore
fluoroquinol
fluoroquinolone
fluoroquinolones
flush
flushing
flux
fly
flying
fm
fmd
fmdv
fmoc
fmt
fn
fo
foal
foals
foam
foamy
foc
focal
foci
focus
focused
focuses
focusing
focuss
focussed
foetal
foetus
fog
fol
folate
fold
folded
folding
folds
folge
follic
follicle
follicles
follicular
follow
followed
followers
following
follows
followup
fom
fomite
fomites
fon
fonction
fond
font
food
foodborne
foods
foot
footprint
for
forall
forb
force
forced
forces
forcing
fore
forec
forecast
forecasted
forecasting
forecasts
foref
forefront
foreign
foremost
forens
forensic
fores
forese
foreseeable
forest
forests
forg
forget
fork
form
forma
formal
formaldehyde
formalin
formally
format
formation
formats
formed
former
formerly
formic
forming
forms
formula
formulae
formulas
formulate
formulated
formulating
formulation
formulations
fors
fort
forth
forthcoming
fortun
fortunately
forty
forum
forums
forward
fos
foss
fossil
foster
fostering
found
foundation
foundations
founded
founder
four
fourfold
fourier
fourteen
fourth
fowl
fox
foxes
foxp3
fp
fpr
fps
fpv
fq
fr
fra
frac
fract
fractal
fraction
fractional
fractionated
fractionation
fractions
fracture
fractures
frag
frage
fragile
fragility
fragment
fragmentation
fragmented
fragments
frail
frailty
fram
frame
framed
frames
framesh
frameshift
frameshifting
framew
framework
frameworks
framing
fran
franc
france
francis
francisco
frank
frankf
franklin
fraud
frc
fre
frecu
frecuencia
frecuente
free
freed
freedom
freely
freeze
freezing
french
frequ
frequencies
frequency
frequent
frequently
fresh
freshly
freshwater
fret
freund
fri
friction
fried
friedman
friend
friendly
friends
fro
from
fron
front
frontal
fronti
frontier
frontiers
frontline
frozen
fruct
fruit
fruits
frustr
frustration
fréqu
frü
früh
fs
ft
ftir
fu
fuc
fucose
fue
fuel
fuels
fuj
fuk
ful
fulf
fulfil
fulfill
fulfilled
fulfilling
full
fuller
fully
fulmin
fulminant
fum
fumig
fumigatus
fun
func
function
functional
functionalities
functionality
functionalization
functionalized
functionally
functioning
functions
fund
fundament
fundamental
fundamentally
funded
funder
funders
funding
funds
fung
fungal
fungi
fungus
funk
funktion
funnel
fur
furin
furn
further
furthermore
fus
fuse
fused
fusing
fusion
fusions
fusogenic
fut
future
futures
fuzz
fuzzy
fv
fvc
fviii
fw
fx
fy
fälle
fällen
führ
führen
führt
für
g
g0
g1
g2
g3
g3bp1
g4
g4s
g5
g6
g6pd
ga
gab
gaba
gabe
gac
gad
gadd
gadolinium
gag
gain
gained
gaining
gains
gait
gal
galact
galactose
galactosidase
galax
galectin
gall
gallbl
gallbladder
galnac
galt
gam
gamb
gambling
game
games
gamm
gamma
gan
ganciclovir
gang
gangl
gangli
ganglia
ganglion
ganglioside
gangliosides
ganz
gao
gap
gapdh
gaps
gar
garc
garcia
garcía
gard
garden
gardens
garg
garner
gas
gase
gaseous
gases
gast
gastr
gastric
gastritis
gastro
gastroenter
gastroenteritis
gastroenterology
gastroint
gastrointestinal
gat
gata
gate
gated
gates
gateway
gather
gathered
gathering
gatherings
gating
gauge
gauss
gaussian
gav
gave
gay
gaz
gb
gbf1
gbm
gbs
gc
gca
gcc
gcs
gct
gd
gdp
ge
gear
geb
gebruik
ged
gee
geen
geese
gef
gefäß
gegen
gegenüber
geh
gel
gelatin
gels
gem
gemc
gemcitabine
gen
genbank
gender
genders
gene
gener
genera
general
generalised
generality
generalizability
generalizable
generalization
generalize
generalized
generally
generate
generated
generates
generating
generation
generations
generative
generator
generic
genes
genesis
genetic
genetically
genetics
geneva
genit
genital
genogroup
genome
genomes
genomic
genomics
genotype
genotyped
genotypes
genotypic
genotyping
gens
gent
gentamicin
gentle
gently
genuine
genus
geo
geograph
geographic
geographical
geographically
geography
geometric
geometry
georg
george
georgia
geos
gep
ger
geriatric
gering
germ
german
germany
germinal
germline
ges
gesch
gest
gestation
gestational
gesund
gesundheits
get
gets
getting
gevallen
gevol
gew
gewe
gez
gezond
geï
gf
gfap
gfp
gfr
gg
gga
ggc
ggf
ggg
ggo
ggos
ggt
gh
ghana
ghg
ghz
gi
giant
giardia
gib
gibbs
gibco
gibt
giemsa
gift
gig
gii
gil
gile
gilead
gill
gilt
ging
gingival
gins
gir
girl
girls
gis
gisa
gisaid
git
gith
github
giv
give
given
gives
giving
gl
gla
glab
glabr
glabra
gland
glands
glandular
glas
glasgow
glass
glasses
glauc
glaucoma
glcnac
gle
gleich
gli
glial
glioblast
glioblastoma
glioma
glm
gln
glo
glob
global
globalization
globally
globe
globin
globular
globulin
glomer
glomerul
glomerular
glomerulonephritis
gloss
glove
gloves
glp
glu
gluc
glucagon
glucan
glucocortic
glucocorticoid
glucocorticoids
glucose
glucosidase
glucuron
glut
glutam
glutamate
glutamic
glutamine
glutamyl
glutar
glutaraldehyde
glutath
glutathione
gly
glyc
glycan
glycans
glycemic
glycer
glycerol
glycine
glyco
glycogen
glycol
glycolysis
glycop
glycopeptides
glycoprotein
glycoproteins
glycos
glycosamin
glycosides
glycosyl
glycosylated
glycosylation
glycyr
glycyrrh
glycyrrhiz
glycyrrhizin
gm
gm1
gmbh
gmp
gn
gnot
go
goal
goals
goat
goats
gob
goblet
god
goes
gogg
goggles
going
gol
gold
golden
golgi
gon
gonad
gond
gondii
gone
gonorrh
gonz
gonzalez
good
goodness
goods
goog
google
gor
gord
gordon
gos
got
gout
gov
gover
govern
governance
governed
governing
government
governmental
governments
governor
gown
gowns
gp
gp1
gp120
gp2
gp3
gp41
gp5
gpc
gpcr
gpcrs
gpi
gpr
gps
gpu
gq
gr
gra
grab
grad
grade
graded
grades
gradient
gradients
grading
gradual
gradually
graduate
graduates
graft
grafted
grafting
grafts
graham
grain
grained
grains
gram
gramm
grams
gran
grand
grande
grant
granted
granting
grants
granul
granular
granularity
granule
granules
granulocyte
granulocytes
granuloma
granulomas
granulomatous
granzyme
grap
graph
graphene
graphic
graphical
graphically
graphics
graphpad
graphs
gras
grasp
grass
grate
grav
grave
graves
gravity
gray
graz
grazing
gre
great
greater
greatest
greatly
greece
greek
green
greenhouse
greg
grew
grey
grft
gri
grid
grids
grief
griff
griffith
griffithsin
grip
gripp
grippe
grna
gro
grocer
grocery
groot
groove
gross
grossly
ground
grounded
grounds
groundwater
group
grouped
grouping
groupings
groups
grow
growing
grown
grows
growth
groß
grp
grp78
grund
grup
grupo
gruppe
größ
gs
gse
gsh
gsk
gsk3
gst
gt
gtp
gtpase
gtpases
gtt
gu
guan
guang
guangdong
guangxi
guangzhou
guanidine
guanine
guanosine
guaran
guarantee
guaranteed
guarantees
guard
guardian
guardians
gues
guess
guest
guests
guid
guidance
guide
guided
guideline
guidelines
guides
guiding
guill
guillain
guinea
gul
gulf
gum
gun
guo
gupta
gust
gustatory
gut
guy
gv
gvhd
gw
gwas
gx
gy
gym
gyn
gynec
gyr
gz
gén
géné
h
h1
h120
h1n1
h1n1pdm
h1n1pdm09
h2
h27
h2n2
h2o
h2o2
h3
h3k
h3n2
h4
h5
h5n1
h6
h7
h7n
h7n9
h9
h9n2
ha
ha1
ha2
haart
hab
haben
habit
habitat
habitats
habits
habitual
hace2
had
hadv
hae
haem
haemagglutin
haemagglutinin
haemat
haematological
haematopoietic
haemoglobin
haemolytic
haemolytica
haemophilus
haemorrh
haemorrhage
haemorrhagic
hag
hai
hair
hairpin
hairpins
hairy
hais
haiti
haj
hajj
hal
half
hall
hallmark
hallmarks
halo
halt
halted
ham
hamb
hamburg
hamilton
hamm
hamp
hamper
hampered
hams
hamster
hamsters
han
hand
handed
handful
handle
handled
handles
handling
hands
handwash
handwashing
hang
hann
hans
hansen
hant
hantavirus
hantaviruses
hap
hapl
haplo
haploid
haploidentical
haplotype
haplotypes
happ
happen
happened
happening
happens
happiness
happy
hapt
haptoglobin
har
harb
harbor
harbored
harboring
harbors
harbour
harbouring
hard
harder
hardly
hardship
hardware
harm
harmful
harmon
harmonic
harms
harness
harr
harris
hars
harsh
hart
harv
harvard
harves
harvest
harvested
harvesting
has
hash
hashtag
hashtags
hass
hasta
hastv
hat
hatch
haus
haut
hav
have
haven
having
haw
hay
haz
hazard
hazardous
hazards
hb
hba1
hba1c
hbc
hbd
hbe
hbeag
hbov
hbov1
hbox
hbs
hbsag
hbss
hbv
hbx
hc
hcc
hcd
hcl
hcmv
hcov
hcovs
hcp
hcps
hcq
hct
hcv
hcw
hcws
hd
hdac
hdl
hdm
hdpp4
hdv
he
head
headache
headaches
headquar
heads
heal
healing
health
healthcare
healthier
healthy
hear
heard
hearing
heart
hearts
heat
heated
heath
heating
heavi
heavily
heavy
hebb
hebben
hed
hedge
heeft
hef
heidel
heidelberg
heifers
height
heightened
heights
heil
hein
hek
hek293
hek293t
hel
hela
held
helic
helical
helicase
helicases
helices
helicobacter
helix
helmet
helmin
helminth
helminths
help
helped
helper
helpful
helping
helpl
helps
hels
helsinki
hem
hemagglutin
hemagglutination
hemagglutinin
hemat
hematocrit
hematogenous
hematologic
hematological
hematology
hematoma
hematopoietic
hematoxylin
hematuria
heme
hemif
hemisph
hemisphere
hemodialysis
hemodynamic
hemodynamically
hemodynamics
hemoglobin
hemolysis
hemolytic
hemophag
hemoptysis
hemorrh
hemorrhage
hemorrhages
hemorrhagic
hemostasis
hemostatic
hen
henan
hence
hend
hendra
henip
henipavirus
hens
hep
hepa
hepac
heparan
heparin
hepat
hepatic
hepatitis
hepatocellular
hepatocyte
hepatocytes
hepatoma
hepatomegaly
hepatos
hepatotoxicity
hepes
hepg2
hept
heptad
her
her2
herb
herbal
herbs
herc
hercules
herd
herds
here
hereafter
hered
hereditary
herein
herit
heritage
herm
hern
hernia
hero
herp
herpes
herpesviridae
herpesvirus
herpesviruses
hers
herv
herz
hes
het
heter
hetero
heteroc
heterod
heterodimer
heterodimers
heterogene
heterogeneity
heterogeneous
heterogenous
heterologous
heteros
heterozyg
heterozygous
heuris
heuristic
heuristics
heute
hev
hex
hexamer
hexamers
hexane
hexon
hf
hfd
hfmd
hfnc
hfov
hfrs
hg
hgf
hh
hhs
hhv
hi
hib
hic
hid
hidden
hide
hier
hierarch
hierarchical
hierarchy
hif
hig
high
higher
highest
highl
highlight
highlighted
highlighting
highlights
highly
hij
hijack
hil
hilar
hilden
hill
him
hims
himself
hin
hind
hinder
hindered
hinders
hindiii
hindrance
hinge
hint
hinter
hip
hipaa
hipp
hippocamp
hippocampal
hippocampus
hips
hir
his
his41
hiseq
hispan
hispanic
hist
histamine
histi
histidine
histocompatibility
histogram
histograms
histologic
histological
histologically
histology
histone
histones
histopath
histopathologic
histopathological
histopathology
histoplasmosis
histor
historic
historical
historically
histories
history
hit
hither
hitherto
hits
hiv
hk
hku
hku1
hku4
hl
hla
hlh
hm
hmg
hmgb1
hmm
hmp
hmpv
hms
hn
hnp
hnr
hnrnp
ho
hob
hoc
hoch
hod
hodg
hodgkin
hoechst
hof
hoff
hoffmann
hog
hoh
hohe
hohen
hol
hold
holder
holding
holds
hole
holes
holid
holiday
holidays
holistic
holland
hollow
holmes
holstein
hom
home
homeless
homeostasis
homeostatic
homes
homing
homo
homod
homodimer
homogen
homogenate
homogenates
homogene
homogeneity
homogeneous
homogenized
homogenous
homolog
homologous
homologs
homologue
homologues
homology
homozyg
homozygous
hon
hone
honest
honey
hong
honor
hood
hoof
hook
hop
hope
hoped
hopefully
hopes
hopkins
hor
horiz
horizon
horizontal
horizontally
horm
hormonal
hormone
hormones
horn
hors
horse
horseradish
horses
horseshoe
hos
hosp
hospice
hospit
hospital
hospitalisation
hospitalised
hospitality
hospitalization
hospitalizations
hospitalized
hospitals
host
hosted
hosting
hosts
hot
hotel
hotels
hots
hotsp
hotspot
hotspots
hour
hourly
hours
hous
house
housed
household
households
housekeeping
houses
housing
houston
how
however
hp
hpa
hpai
hpaiv
hpc
hpev
hpi
hpiv
hpiv3
hplc
hpr
hps
hpt
hpv
hpv16
hq
hr
hr1
hr2
hrct
hrms
hrp
hrqol
hrs
hrsv
hrt
hrv
hrvs
hs
hsa
hsc
hscs
hsct
hsp
hsp70
hsp90
hsr
hsu
hsv
ht
htlv
htm
html
htnv
hts
htt
http
https
hu
huanan
huang
hub
hubei
hubs
hud
hug
huge
hugh
hughes
huh
huh7
hui
huid
hum
human
humane
humanitarian
humanity
humanized
humans
humid
humidified
humidity
humor
humoral
hun
hund
hundred
hundreds
hung
hungary
hunger
hunov
hunt
hunter
hunting
hur
hurdles
hurr
hurric
hurricane
hus
husband
husbandry
hut
huvec
huvecs
hv
hvac
hw
hx
hy
hyal
hyaline
hybr
hybrid
hybridisation
hybridization
hybridized
hybridoma
hybrids
hyclone
hyd
hydr
hydration
hydro
hydroc
hydrocephalus
hydrochloride
hydrocortisone
hydrodynamic
hydrogel
hydrogels
hydrogen
hydrol
hydrolase
hydroly
hydrolys
hydrolysis
hydrolyzed
hydroph
hydrophil
hydrophilic
hydrophob
hydrophobic
hydrophobicity
hydrox
hydroxide
hydroxy
hydroxych
hydroxychloroquine
hydroxyl
hydroxyp
hygi
hygiene
hygienic
hyp
hyper
hyperc
hypercap
hypercapnia
hyperch
hypercoagul
hypercoagulability
hypercoagulable
hyperg
hypergly
hyperglycemia
hyperimmune
hyperinflammation
hyperinflammatory
hyperint
hyperlipidemia
hyperm
hyperp
hyperparam
hyperplasia
hyperresponsiveness
hypers
hypersensitivity
hypert
hypertension
hypertensive
hyperth
hyperther
hyperthermia
hypertonic
hypertrophic
hypertrophy
hyperv
hypervariable
hyphae
hypo
hypoalbumin
hypoalbuminemia
hypocal
hypochlor
hypochlorite
hypof
hypog
hypogly
hypoglycemia
hypok
hypokal
hypokalemia
hypon
hyponatremia
hypoplasia
hyposmia
hypot
hypotension
hypoth
hypothalam
hypothalamic
hypothalamus
hypothe
hypother
hypothermia
hypothes
hypotheses
hypothesis
hypothesised
hypothesize
hypothesized
hypothetical
hypothyroidism
hypov
hypox
hypoxemia
hypoxemic
hypoxia
hypoxic
hyster
hz
hä
häm
häuf
häufig
hô
hö
höher
i
i0
i1
i2
ia
iac
iacuc
iap
iat
iatrogenic
iav
iavs
ib
iba
ibd
ibdv
ibm
ibr
ibs
ibup
ibuprofen
ibv
ibvs
ic
ic50
ica
icam
icao
icc
icd
ice
iceland
ich
ici
icm
icos
icosahedral
icp
icr
ics
ict
ictv
icu
icus
icv
id
ide
idea
ideal
ideally
ideas
ideation
iden
identi
identical
identif
identifi
identifiable
identific
identification
identified
identifier
identifiers
identifies
identify
identifying
identities
identity
ideology
idex
idi
idiopathic
ido
ids
idsa
idv
ie
ied
iedb
ies
if
ifa
iff
ifi
ifit
ifit1
ifit2
ifitm
ifitm1
ifitm2
ifitm3
ifitms
ifn
ifna
ifnar
ifnar1
ifnb
ifng
ifns
ifnα
ifnβ
ifnγ
ifnλ
ifr
ifv
ig
iga
iga1
igd
ige
igf
igg
igg1
igg2
igg2a
igg4
iggs
ighv
igm
ign
ignor
ignorance
ignore
ignored
ignoring
igr
igy
ih
ihc
ihr
ihre
ihrer
ii
iia
iib
iii
iip
ij
ik
ikk
ikkε
il
il1
il10
il2
il6
ild
ile
ileal
ileum
ili
iliac
ill
ille
illegal
illicit
illinois
illness
illnesses
illum
illumina
illumination
illustr
illustrate
illustrated
illustrates
illustrating
illustration
illustrative
ils
im
ima
imag
image
imaged
imagej
images
imagine
imaging
imatinib
imbal
imbalance
imbalanced
imbalances
imf
imid
imidazole
imipenem
imm
immature
immedi
immediate
immediately
immense
immer
immers
immersed
immersion
immig
immigrant
immigrants
immigration
imminent
immob
immobil
immobilization
immobilized
immort
immortalized
immun
immune
immunisation
immunised
immunity
immunization
immunizations
immunized
immuno
immunoass
immunoassay
immunoassays
immunob
immunoblot
immunoblotting
immunochromat
immunocomp
immunocompetent
immunocompromised
immunocyt
immunod
immunodef
immunodeficiency
immunodeficient
immunodom
immunodominant
immunofluores
immunofluorescence
immunofluorescent
immunogen
immunogenic
immunogenicity
immunogens
immunoglob
immunoglobulin
immunoglobulins
immunohist
immunohistochemical
immunohistochemistry
immunologic
immunological
immunologically
immunology
immunomod
immunomodulation
immunomodulators
immunomodulatory
immunop
immunopath
immunopathology
immunophen
immunoprecip
immunoprecipitated
immunoprecipitation
immunor
immunore
immunoreactive
immunoreactivity
immunoregulatory
immunoresearch
immunos
immunosorbent
immunost
immunostaining
immunostimulatory
immunosupp
immunosuppress
immunosuppressant
immunosuppressants
immunosuppressed
immunosuppression
immunosuppressive
immunotherapy
immuns
immunsupp
imp
impact
impacted
impacting
impaction
impacts
impair
impaired
impairing
impairment
impairments
impairs
imped
impedance
impede
impending
imper
imperative
imperfect
imperial
impetus
impf
impfstoff
impl
implant
implantation
implanted
implants
implement
implementation
implementations
implemented
implementing
implements
implic
implicate
implicated
implicating
implication
implications
implicit
implicitly
implied
implies
imply
implying
import
importance
important
importante
importantly
importation
imported
importin
imports
impose
imposed
imposes
imposing
imposs
impossible
impr
impractical
imprec
impregn
impression
impressive
imprin
impro
improper
improve
improved
improvement
improvements
improves
improving
impuls
impulse
imputation
imputed
ims
imv
in
inability
inacc
inaccess
inaccessible
inaccurate
inactiv
inactivate
inactivated
inactivates
inactivating
inactivation
inactive
inactivity
inad
inadequ
inadequate
inadvert
inadvertent
inadvertently
inapp
inappropri
inappropriate
inbred
inc
incap
incapable
incarcer
incenti
incentiv
incentive
incentives
inception
incid
incidence
incidences
incident
incidental
incidentally
incidents
incin
incision
incl
inclined
inclu
includ
include
included
includes
including
inclus
inclusion
inclusions
inclusive
income
incomes
incoming
incomp
incompatible
incomplete
incompletely
incon
inconclusive
incons
inconsist
inconsistencies
inconsistency
inconsistent
incontin
incontinence
inconven
incor
incorpor
incorporate
incorporated
incorporates
incorporating
incorporation
incorrect
incorrectly
incre
increase
increased
increases
increasing
increasingly
incred
increment
incremental
increments
incub
incubate
incubated
incubating
incubation
incubator
incurred
ind
indeed
indefin
indel
indels
indep
independ
independence
independent
independently
indeterm
indeterminate
index
indexed
indexes
indi
india
indian
indiana
indic
indicate
indicated
indicates
indicating
indication
indications
indicative
indicator
indicators
indices
indigen
indigenous
indik
indirect
indirectly
indis
indispens
indispensable
indistinguish
indistinguishable
individ
individu
individual
individualized
individually
individuals
indole
indometh
indomethacin
indones
indonesia
indonesian
indoor
indoors
induc
induce
induced
inducer
inducers
induces
inducible
inducing
induction
inductive
indust
industrial
industrialized
industries
industry
ine
ineff
ineffective
inefficient
inequ
inequalities
inequality
inequities
iner
inert
inertia
inev
inevitable
inevitably
inexp
inexpensive
inf
infancy
infant
infantile
infants
infantum
infar
infarc
infarct
infarction
infarcts
infec
infecci
infecciones
infección
infect
infected
infecti
infectie
infecties
infecting
infection
infections
infectious
infectiousness
infective
infectives
infectivity
infects
infek
infekti
infektion
infektionen
infektions
infer
inference
inferences
inferior
inferred
inferring
infertility
infestation
infi
infil
infiltr
infiltrate
infiltrated
infiltrates
infiltrating
infiltration
infin
infinite
infl
inflam
inflamed
inflamm
inflammasome
inflammation
inflammatory
inflated
inflation
inflection
infliximab
inflow
influ
influence
influenced
influences
influencing
influential
influenz
influenza
influenzae
influx
info
inform
informal
informatics
information
informational
informative
informed
informing
infr
infrared
infras
infrastruct
infrastructure
infrastructures
infrequ
infrequent
infrequently
infty
infused
infusion
infusions
ing
ingen
inges
ingested
ingestion
ingr
ingredient
ingredients
ingres
ingreso
ingu
inguinal
inh
inhab
inhabitants
inhal
inhalation
inhaled
inher
inherent
inherently
inheritance
inherited
inhib
inhibit
inhibited
inhibiting
inhibition
inhibitor
inhibitors
inhibitory
inhibits
inhomogene
initi
initial
initially
initiate
initiated
initiates
initiating
initiation
initiative
initiatives
initiator
inj
inject
injectable
injected
injecting
injection
injections
injured
injuries
injury
ink
inlet
inm
inmun
inn
innate
inner
innerhalb
innov
innovation
innovations
innovative
ino
inoc
inocula
inoculated
inoculation
inoculum
inorganic
inos
inositol
inotropic
inpatient
inpatients
input
inputs
inqu
inquiry
inr
ins
insbes
insbesondere
insect
insectic
insectiv
insects
insecurity
insensitive
inser
insert
inserted
inserting
insertion
insertions
inserts
inset
insgesamt
insid
inside
insight
insights
insignificant
insol
insoluble
insomnia
insp
inspected
inspection
inspiration
inspiratory
inspired
inst
instability
instagram
install
installation
installed
instance
instances
instant
instantaneous
instead
instill
instillation
instit
institut
institute
instituted
institutes
institution
institutional
institutions
instr
instruc
instruct
instructed
instruction
instructional
instructions
instructor
instructors
instrument
instrumental
instrumentation
instruments
insu
insuff
insufficiency
insufficient
insulin
insult
insults
insur
insurance
int
intact
intake
inte
integer
integr
integral
integrase
integrate
integrated
integrates
integrating
integration
integrative
integrin
integrins
integrity
intel
intell
intellect
intellectual
intellig
intelligence
intelligent
inten
intend
intended
intens
intense
intensification
intensified
intensities
intensity
intensiv
intensive
intensively
intensivists
intent
intention
intentional
intentionally
intentions
inter
interact
interacted
interacting
interaction
interactions
interactive
interactome
interacts
interc
intercal
intercellular
intercept
interchange
interconn
interconnected
interd
interdepend
interdependent
interdisciplinary
interes
interest
interested
interesting
interestingly
interests
interf
interface
interfaces
interfacial
interfer
interfere
interfered
interference
interferes
interfering
interferon
interferons
intergenic
interim
interior
interleuk
interleukin
interleukins
interlobular
interm
intermedi
intermediary
intermediate
intermediates
intermitt
intermittent
intermolecular
intern
internal
internalization
internalized
internally
international
internationally
internet
interns
interoper
interoperability
interp
interpersonal
interplay
interpolation
interpre
interpret
interpretable
interpretation
interpretations
interpreted
interpreting
interquar
interquartile
interrelated
interrog
interrup
interrupt
interrupted
interruption
interruptions
inters
intersection
intersp
interspecies
intersti
interstitial
interstitium
intertw
interv
interval
intervals
interven
intervene
intervening
intervention
interventional
interventions
interview
interviewe
interviewed
interviewees
interviews
intes
intestin
intestinal
intestine
intestines
intim
intimate
into
intoler
intolerance
intox
intoxication
intr
intra
intrac
intracellular
intracellularly
intracere
intracerebral
intracr
intracranial
intractable
intrad
intraderm
intradermal
intrahepatic
intral
intram
intramolecular
intramuscular
intramuscularly
intran
intranas
intranasal
intranasally
intranuclear
intraocular
intraoperative
intrap
intraper
intraperitoneal
intraperitoneally
intrath
intrathecal
intratr
intratracheal
intrauter
intrauterine
intrav
intravascular
intraven
intravenous
intravenously
intricate
intrig
intriguing
intriguingly
intrins
intrinsic
intrinsically
introduc
introduce
introduced
introduces
introducing
introduction
introductions
intron
introns
intu
intub
intubated
intubation
intuition
intuitive
intuitively
intuss
intussus
inv
invade
invading
invag
invalid
invaluable
invari
invariably
invariant
invas
invasion
invasive
invent
inventory
inver
inverse
inversely
inversion
invertebr
invertebrate
invertebrates
inverted
inves
invest
invested
investig
investigate
investigated
investigates
investigating
investigation
investigational
investigations
investigator
investigators
investing
investment
investments
investor
investors
invisible
invit
invitation
invite
invited
invitrogen
invol
involve
involved
involvement
involves
involving
inward
io
iod
iodide
iodine
iom
ion
ionic
ionization
ionizing
ions
iop
ios
iot
iowa
ip
ipa
ipc
ipd
ipec
ipf
ipr
ips
ipt
iptg
ipv
iq
iqr
ir
irak
iran
iranian
iraq
irb
ire
ire1
ireland
ires
irf
irf1
irf3
irf7
irf9
iris
irish
iron
irr
irradi
irradiated
irradiation
irre
irregular
irrelevant
irresp
irrespective
irrevers
irreversible
irrig
irrigation
irritability
irritation
irs
irt
is
isa
isatin
isav
isc
isch
ischaemia
ischaemic
ischemia
ischemic
isg
isg15
isg20
isgs
isgylation
ish
isl
islam
island
islands
islet
islets
isn
iso
isofl
isoflurane
isoform
isoforms
isol
isolate
isolated
isolates
isolating
isolation
isole
isomer
isomers
isonia
isoniazid
isop
isoprop
isopropyl
isot
isothermal
isothi
isothiocyanate
isotope
isotype
isotypes
isr
isra
israel
israeli
isre
iss
issue
issued
issues
ist
it
ital
italian
italy
itch
item
items
iter
iteration
iterations
iterative
iteratively
ith
ito
itp
itr
itraconazole
its
itself
iu
iv
iverm
ivermectin
ivig
iw
ix
iz
iκb
iκbα
j
j2
ja
jaar
jac
jack
jackson
jacob
jacobs
jah
jahr
jahre
jahren
jak
jak1
jak2
jam
jama
james
jan
jane
jans
january
janus
jap
japan
japanese
japonic
japonica
jar
jaund
jaundice
java
jaw
jb
jc
jcv
je
jed
jedoch
jeff
jejun
jejunal
jejuni
jejunum
jen
jensen
jeopard
jersey
jet
jev
jew
jewe
jfh
jh
jhm
jhmv
ji
jia
jiang
jiangsu
jim
jin
jing
jiro
jirovec
jirovecii
jk
jm
jn
jnk
jo
job
jobs
joh
john
johns
johnson
join
joined
joining
joint
jointly
joints
jol
jolla
jones
jord
jordan
jos
jose
joseph
jour
journal
journalists
journals
journey
jours
jp
jr
js
ju
jud
judg
judge
judged
judgement
judgment
judgments
judicious
jug
jugular
juice
jul
july
jump
jumps
jun
junction
junctions
june
jung
junior
junv
juris
jurisdic
jurisdiction
jurisdictions
jurk
jurkat
jus
just
justice
justif
justification
justified
justify
juven
juvenile
juveniles
juxt
jx
k
k1
k2
k3
k48
k562
k63
ka
kae
kal
kall
kam
kamp
kan
kanamycin
kang
kann
kans
kansas
kap
kaplan
kaposi
kappa
kar
kary
kas
kat
kaw
kawasaki
kaz
kb
kbp
kbr
kc
kcal
kcdc
kcl
kd
kda
ke
keep
keeping
keeps
kegg
kein
keine
kel
kelly
ken
kenn
kent
kenya
kept
ker
keral
kerala
kerat
keratin
keratinocytes
keratitis
kern
kernel
kernels
ket
ketamine
keto
ketone
key
keys
keyw
keyword
keywords
kf
kg
kh
khan
ki
ki67
kid
kidney
kidneys
kids
kil
kill
killed
killer
killing
kills
kim
kin
kinase
kinases
kind
kinder
kinderen
kindern
kindly
kinds
kine
kinetic
kinetics
king
kingdom
kip
kir
kiss
kit
kits
kittens
kj
kl
klachten
klass
kle
klebsi
klebsiella
klein
klin
klinik
klinisch
klinische
klinischen
km
kn
kne
knee
knew
knock
knockdown
knocked
knockout
know
knowing
knowledge
known
knows
ko
kob
kobu
koch
kod
koh
kol
kolmog
kolmogorov
kom
komb
komm
kommen
kommt
komp
komplik
komplikationen
komt
kon
kong
konn
konnte
konnten
kons
kont
kontakt
kontroll
koorts
kop
kor
kore
korea
korean
kos
kost
koz
kp
kpa
kr
krank
krankenh
krankheits
kras
kre
krus
kruskal
ks
ksa
ksh
kshv
kt
ku
kuh
kul
kum
kumar
kun
kunnen
kup
kupffer
kur
kurt
kurz
kuwa
kuwait
kv
kw
ky
kyoto
kö
könn
können
kör
körper
l
l1
l2
l3
l4
l9
la
lab
label
labeled
labeling
labelled
labelling
labels
labile
labor
laborator
laboratories
laboratory
laborious
labour
labs
lac
lack
lacked
lacking
lacks
lacrimal
lact
lactam
lactamase
lactamases
lactams
lactate
lactating
lactation
lactic
lactis
lactobac
lactobacilli
lactobacillus
lactofer
lactoferrin
lactose
lacz
lad
ladder
laden
lag
lagged
lags
lai
laid
laiv
lak
lake
lakes
lam
lamb
lambda
lambs
lamin
lamina
laminar
laminin
lamivudine
lamp
lan
lanc
lancet
land
landmark
lands
landscape
landscapes
lane
lanes
lang
lange
langer
langerhans
langle
langu
language
languages
lank
lanka
lap
lapar
laparoscopic
laparoscopy
laparotomy
lapl
lar
larg
large
largely
larger
largest
larv
larvae
larval
laryng
laryngeal
laryngoscopy
larynx
las
laser
lass
lassa
lassen
last
lasted
lasting
lastly
lasts
lasv
lat
late
latency
latent
latently
later
lateral
latest
latex
latin
latino
latit
latitude
latter
lattice
lau
laun
launch
launched
lav
lavage
law
laws
lax
lay
layer
layered
layers
laying
layout
laz
lb
lbp
lbs
lc
lc3
lcmv
lcs
ld
lda
ldh
ldl
ldots
ldv
le
lead
leader
leaders
leadership
leading
leads
leaf
leaflet
leak
leakage
leaks
leaky
lean
lear
learn
learned
learner
learners
learning
learns
learnt
least
leave
leaves
leaving
leb
leban
lebanon
lebens
leber
lec
lect
lectin
lectins
lecture
lectures
led
lee
left
leg
legacy
legal
legally
legend
legion
legionella
legionna
legis
legisl
legislation
legislative
legitim
legitimacy
legitimate
legs
lei
leica
leiden
leis
leish
leishman
leishmania
leishmaniasis
leisure
leit
lem
lemma
len
lend
lending
length
lengths
lengthy
lens
lenti
lentiviral
lentivirus
lentiviruses
leon
leone
lep
leprosy
lept
leptin
leptosp
leptospi
leptospira
leptospirosis
les
lesion
lesions
less
lessen
lesser
lesson
lessons
let
leth
lethal
lethality
letharg
lethargy
lett
letter
letters
letz
leu
leuc
leucine
leucocyte
leucocytes
leuk
leukaemia
leukemia
leukemic
leukocyte
leukocytes
leukocytosis
leukopenia
leukotri
leukotriene
leung
leur
lev
level
levels
lever
leverage
leveraged
leveraging
levofloxacin
levy
lew
lewis
lex
leyd
lf
lfa
lg
lh
li
lia
liability
liaison
liang
liao
lib
liber
liberal
liberia
liberty
libitum
libr
libraries
library
lic
licence
licens
license
licensed
licenses
licensing
licensure
lich
licl
licorice
lid
lie
liegen
liegt
lies
lieu
lif
life
lifec
lifecycle
lifelong
lifes
lifespan
lifest
lifestyle
lifestyles
lifetime
lift
lifted
lifting
lig
ligament
ligand
ligands
ligase
ligases
ligated
ligation
light
lightcycler
lighting
lights
lign
lik
like
likelihood
likely
likert
likewise
lil
lim
limb
limbs
limit
limitation
limitations
limited
limiting
limits
lin
linc
lind
line
lineage
lineages
linear
linearity
linearized
linearly
lined
lines
linezolid
ling
linguistic
lining
link
linkage
linkages
linked
linker
linkers
linking
links
lion
lions
lip
lipase
lipid
lipids
lipof
lipofectamine
lipophilic
lipopoly
lipopolysaccharide
lipoprotein
lipoproteins
liposomal
liposome
liposomes
lips
liqu
liquid
liquidity
liquids
liquor
lis
list
listed
listen
listening
lister
listeria
listing
lists
lit
liter
literacy
literature
literatures
lith
lithium
litter
litterm
litters
little
liu
liv
live
lived
livel
livelihood
livelihoods
liver
livers
lives
livest
livestock
living
lj
ll
llam
llc
llo
lm
lmic
lmics
lmp
lmwh
ln
lna
lncrna
lncrnas
lnot
lnp
lns
lo
load
loaded
loading
loads
loan
loans
lob
lobar
lobe
lobes
lobular
loc
local
localisation
localised
localities
locality
localization
localize
localized
localizes
locally
locate
located
location
locations
loci
lock
lockdown
lockdowns
locked
locus
lod
log
log10
log2
logarith
logarithm
logarithmic
logic
logical
logis
logistic
logistical
logistics
logit
logs
lok
lomb
lombardy
lon
lond
london
loneliness
long
longe
longer
longest
longevity
longitud
longitudinal
longitudinally
longterm
look
looked
looking
looks
loop
loops
loos
loose
loosely
lop
lopinavir
lor
lors
los
losartan
lose
losing
loss
losses
lost
lot
lots
loud
louis
lov
love
loved
low
lower
lowered
lowering
lowers
lowest
lox
loyal
loz
lp
lpa
lps
lpv
lr
lri
lrt
lrti
lrtis
ls
lsectin
lsm
lstm
lt
lta
ltc
ltcf
ltd
ltr
ltx
lu
lub
luc
lucht
lucif
luciferase
lud
lug
lum
lumbar
lumen
lumin
luminal
luminescence
luminex
lump
lun
lund
lung
lungen
lungs
luo
lup
lupus
lus
lute
lux
lv
lvef
lw
lx
ly
ly6
lyc
lycorine
lying
lym
lyme
lymph
lymphaden
lymphadenopathy
lymphatic
lymphoblastic
lymphocyte
lymphocytes
lymphocytic
lymphocytopenia
lymphoh
lymphohisti
lymphoid
lymphoma
lymphomas
lymphop
lymphopenia
lymphoproliferative
lyophil
lyophilized
lys
lysate
lysates
lyse
lysed
lysine
lysis
lysosomal
lysosome
lysosomes
lysozyme
lyss
lyssavirus
lyssaviruses
lytic
lz
läng
läs
lässt
l−1
m
m1
m13
m2
m2e
m3
m4
m41
m5
m6
m7
m8
ma
maar
mab
mabs
mac
maca
macaque
macaques
mach
machin
machine
machinery
machines
mack
macro
macroc
macroeconomic
macrol
macrolide
macrolides
macrom
macromolecular
macromolecules
macrop
macroph
macrophage
macrophages
macropin
macropinocytosis
macroscopic
macul
macular
maculop
mad
madag
madagascar
made
madin
madison
madrid
mae
maf
mag
magn
magna
magne
magnesium
magnet
magnetic
magnification
magnitude
magnitudes
mah
mail
main
mainland
mainly
mainst
mainstay
mainstream
maintain
maintained
maintaining
maintains
mainten
maintenance
mais
maize
maj
major
majority
mak
make
maker
makers
makes
making
mal
malabsorption
malad
maladie
maladies
malaise
malaria
malarial
malawi
malays
malaysia
malaysian
maldi
male
males
malform
malformation
malformations
malicious
malign
malignancies
malignancy
malignant
mall
maln
malnutrition
malt
maltophilia
maltreatment
mam
mamm
mammal
mammalian
mammals
mammary
man
manag
manage
manageable
managed
management
manager
managerial
managers
managing
mand
mandate
mandated
mandates
mandatory
maneu
maneuver
maneuvers
manif
manifest
manifestation
manifestations
manifested
manifesting
manifests
manifold
manik
manikin
manip
manipulate
manipulated
manipulating
manipulation
manipulations
mann
mannan
manner
mannheim
mannich
mannitol
mannose
mano
manpower
mans
mant
manual
manually
manufact
manufactur
manufacture
manufactured
manufacturer
manufacturers
manufacturing
manure
manus
manuscript
manuscripts
many
mao
map
mapk
mapp
mapped
mapping
maps
mar
marburg
marc
march
mare
marg
margin
marginal
marginalized
marginally
margins
mari
marine
marital
mark
marked
markedly
marker
markers
market
marketed
marketing
markets
marking
markov
marks
marmos
marmosets
married
marrow
mars
marsh
mart
martin
martine
martinez
marv
mary
maryland
mas
masc
mask
masked
masking
masks
masp
mass
massachusetts
masses
massive
massively
mast
master
masters
mastitis
mat
match
matched
matches
matching
mate
mater
material
materials
matern
maternal
maternity
math
mathbb
mathbf
mathcal
mathem
mathematic
mathematical
mathematically
mathematics
mathop
mathrm
mathrsfs
mathsf
mathtt
mating
matlab
matric
matrices
matrix
mats
matter
matters
matth
maturation
mature
maturity
maur
mavs
max
maxill
maxillary
maxim
maxima
maximal
maximally
maximise
maximization
maximize
maximizing
maximum
may
maybe
mayo
mayor
mayoría
maz
maßnahmen
mb
mbl
mbp
mbs
mc
mca
mcc
mcd
mce
mcf
mcg
mch
mcherry
mci
mck
mcl
mcm
mcmc
mcmv
mcn
mcp
mcs
mct
md
mda
mda5
mdbk
mdc
mdck
mdd
mdr
mds
me
meal
meals
mean
meaning
meaningful
meanings
means
meant
meantime
meanwhile
meas
measles
measurable
measure
measured
measurement
measurements
measures
measuring
meat
mec
mech
mechan
mechanical
mechanically
mechanics
mechanis
mechanism
mechanisms
mechanistic
mechanistically
med
medi
media
medial
median
medians
mediante
medias
mediastinal
mediastinum
mediate
mediated
mediates
mediating
mediation
mediator
mediators
medic
medicaid
medical
medically
medicare
medication
medications
medicinal
medicine
medicines
medidas
medik
medikament
meditation
mediter
mediterranean
medium
medizin
medline
medr
medrxiv
medulla
medullary
meer
meest
meestal
meet
meeting
meetings
meets
mef
mefs
meg
mega
megakary
meh
mehr
meier
meist
meisten
mejor
mek
mel
melan
melanoma
melat
melatonin
melbourne
meld
mell
mellitus
melphal
melphalan
melt
melting
mem
member
members
membership
membr
membran
membrane
membranes
membranous
memorial
memory
men
mend
meng
mening
meningeal
meninges
meningitidis
meningitis
meningococcal
meningoencephalitis
menos
mens
mensch
menschen
menstr
menstrual
ment
mental
mention
mentioned
mentioning
mentions
mentors
meoh
mep
meq
mer
merc
mercapto
mercaptoethanol
merck
mercury
mere
merely
merg
merge
merged
merging
merit
merits
meropenem
mers
mes
mesenchymal
mesenteric
mesh
mesoth
mess
message
messages
messaging
messenger
mesylate
met
meta
metabol
metabolic
metabolically
metabolism
metabolite
metabolites
metabolized
metabolomics
metad
metadata
metagen
metagenomic
metagenomics
metal
metall
metallic
metalloprote
metalloprotein
metalloproteinase
metalloproteinases
metals
metam
metap
metaph
metaphor
metaplasia
metapneum
metapneumovirus
metapopulation
metast
metastases
metastasis
metastatic
meteor
meteorological
meter
meters
metformin
meth
methane
methanol
methicillin
methionine
method
methodological
methodologies
methodology
methods
methotrex
methotrexate
methoxy
methyl
methylated
methylation
methylene
methylpred
methylprednisolone
methyltransferase
metic
meticulous
metric
metrics
metron
metronidazole
metrop
metropol
metropolitan
mev
mex
mexican
mexico
meyer
mf
mf59
mfi
mg
mg132
mgcl
mgcl2
mh
mhc
mhv
mhv3
mhz
mi
mib
mic
mice
micelles
mich
michael
michigan
micr
micro
microangi
microarr
microarray
microarrays
microb
microbe
microbes
microbi
microbial
microbiologic
microbiological
microbiology
microbiome
microbiota
microc
microcephaly
microch
microcirculation
microd
microenviron
microenvironment
microf
microflora
microflu
microfluid
microfluidic
microfluidics
microgl
microglia
microglial
micrographs
microl
microliters
microm
micromolar
micron
microne
micronutri
microorganis
microorganism
microorganisms
microp
microparticles
microplate
micror
microrna
micrornas
micros
microsat
microscop
microscope
microscopic
microscopically
microscopy
microsoft
microsph
microspheres
microtiter
microtub
microtubule
microtubules
microv
microvascular
microwave
mics
mid
midazolam
midd
middle
midgut
midline
midst
midw
midwives
mif
mig
might
migr
migraine
migrant
migrants
migrate
migrated
migrating
migration
migratory
mik
mil
milan
mild
milder
mildly
miles
milest
milieu
military
milk
mill
millenn
millennium
miller
millil
milliliter
million
millions
millip
millipore
milten
mim
mimic
mimicking
mimicry
mimics
min
mind
minder
mindful
mindfulness
minds
mine
miner
mineral
minerals
mini
miniatur
minim
minimal
minimally
minimise
minimising
minimization
minimize
minimized
minimizes
minimizing
minimum
mining
minip
minister
ministries
ministry
mink
minne
minneapolis
minnes
minnesota
minor
minorities
minority
mins
minus
minute
minutes
mip
mir
mirna
mirnas
mirr
mirror
mirrored
mis
misclass
misclassification
miscon
mise
miseq
misfolded
misinformation
misinter
misle
misleading
mism
mismat
mismatch
mismatched
mismatches
miss
missed
missense
missing
mission
missions
mist
mistaken
mistakes
misunder
misuse
mit
mite
mites
mitig
mitigate
mitigated
mitigating
mitigation
mitochond
mitochondria
mitochondrial
mitogen
mitosis
mitotic
mitral
mitt
mittel
mittels
mix
mixed
mixing
mixture
mixtures
miy
miz
mj
mk
mk2
ml
mln
mlst
mlv
ml−1
mm
mm3
mmf
mmhg
mmol
mmp
mmps
mmr
mn
mnc
mng
mngs
mns
mnv
mo
mob
mobil
mobile
mobility
mobilization
mobilize
mobilized
mock
mod
modal
modalities
modality
mode
model
modeled
modeling
modelled
modelling
models
moder
moderate
moderately
modern
modes
modest
modestly
modifi
modifiable
modification
modifications
modified
modifier
modifiers
modifies
modify
modifying
mods
modular
modulate
modulated
modulates
modulating
modulation
modulator
modulators
modulatory
module
modules
moe
moet
mof
mofetil
mog
mogelijk
moh
moi
moieties
moiety
moins
mois
moist
moisture
mol
molar
mold
mole
molec
molecular
molecule
molecules
mom
moment
momento
moments
momentum
mon
mond
monetary
money
mong
monies
monitor
monitored
monitoring
monitors
monkey
monkeypox
monkeys
mono
monoc
monoclonal
monocyt
monocyte
monocytes
monocytic
monocytogenes
monol
monolayer
monolayers
monomer
monomeric
monomers
mononucle
mononuclear
mononucleosis
monoph
monophosph
monophosphate
monophyletic
monos
monosacchar
monot
monotherapy
monotonic
monovalent
monoxide
mont
monte
month
monthly
months
montr
montre
mood
moon
moore
mop
mor
moral
morax
moraxella
morb
morbid
morbidities
morbidity
morbill
more
moreover
morgan
mori
morning
moroc
morocco
morph
morphine
morphogenesis
morpholino
morphologic
morphological
morphologically
morphology
morris
mort
mortal
mortalidad
mortalities
mortality
mortem
mos
mosaic
mosc
mosqu
mosquito
mosquitoes
moss
most
mostly
mot
moth
mother
mothers
motif
motifs
motility
motion
motions
motiv
motivate
motivated
motivation
motivations
motor
mould
moun
mount
mountain
mounted
mounting
mouse
mouth
mov
move
moved
movement
movements
moves
movie
movies
moving
mox
moxifloxacin
moy
mp
mpa
mpi
mpl
mpo
mpp
mpr
mpro
mps
mpt
mpv
mr
mra
mrc
mrd
mri
mrna
mrnas
mrs
mrsa
mrt
mrv
ms
ms2
msa
msc
mscs
msd
mse
msm
msp
mssa
mt
mtase
mtb
mtdna
mtor
mts
mtt
mtx
mu
muc
much
mucin
mucins
mucoc
mucociliary
mucoid
mucos
mucosa
mucosal
mucositis
mucous
mucus
mud
muench
mues
muestras
muk
mul
muller
mult
multi
multic
multicenter
multicentre
multicol
multid
multidimensional
multidisciplinary
multidrug
multif
multifaceted
multifactor
multifactorial
multifocal
multifunctional
multil
multilateral
multilayer
multilevel
multim
multimodal
multin
multinational
multinucle
multinucleated
multiorgan
multip
multipl
multiple
multiplex
multiplexed
multiplexing
multiplic
multiplication
multiplicity
multiplied
multiply
multiplying
multis
multist
multisystem
multitude
multiv
multivalent
multivariable
multivariate
multocida
mumps
mun
mund
munich
municip
municipal
municipalities
municipality
mur
murine
murphy
murr
murray
mus
musc
muscle
muscles
muscul
muscular
musculoskeletal
muse
mush
music
muslim
muss
must
mut
mutagen
mutagenesis
mutagenic
mutant
mutants
mutate
mutated
mutating
mutation
mutational
mutations
mutual
mutually
muy
mv
mva
mw
mx
mx1
mxa
my
myal
myalgia
myalgias
myan
myanmar
myasth
myc
mycobacter
mycobacteria
mycobacterial
mycobacterium
mycophen
mycophenolate
mycoplasma
myd
myd88
myel
myelin
myelitis
myeloablative
myeloid
myeloma
myeloperoxidase
myo
myocard
myocardial
myocarditis
myocardium
myocytes
myofib
myopathy
myosin
myositis
myotis
myr
myri
myriad
mys
myself
myster
myx
mz
más
mé
méd
médec
médic
mét
mê
même
möglich
möglichkeit
mü
müller
müssen
mβcd
mφ
n
n1
n2
n3
n4
n7
n95
na
naar
naat
naats
nab
nabs
nac
nach
nachgew
nachgewiesen
nachweis
nacl
nad
nadph
naf
nafld
nag
nah
nai
nail
nairo
naive
nak
naked
nal
nam
name
named
namely
names
naming
nan
nanjing
nano
nanob
nanoc
nanocar
nanocomp
nanod
nanodrop
nanofib
nanofibers
nanom
nanomaterials
nanomolar
nanop
nanopartic
nanoparticle
nanoparticles
nanopore
nanos
nanoscale
nanostruct
nanostructures
nanot
nanotechnology
nanotubes
nanow
naoh
nap
naph
nar
narc
nares
narr
narrative
narratives
narrow
narrower
narrowing
nas
nasal
nasba
nasc
nascent
nash
nasogastric
nasoph
nasopharyngeal
nasopharynx
nat
natal
nation
national
nationalism
nationally
nations
nationwide
native
natri
natriuretic
natural
naturally
nature
nause
nausea
nav
nava
navig
navigate
navigation
naz
naï
naïve
nb
nbd
nbs
nc
ncbi
ncc
ncd
ncds
nci
ncov
ncp
ncr
ncrnas
ncs
nct
nct0
nct04
nct043
nd
ndings
ndm
ndv
ne
near
nearby
nearest
nearly
neb
neben
nebul
nebulization
nebulized
nebulizer
nec
neces
necess
necessarily
necessary
necessitate
necessitated
necessitates
necessitating
necessity
neck
necro
necrops
necropsy
necrosis
necrotic
necrotizing
ned
neder
nederland
need
needed
needing
needle
needles
needs
nef
neg
negativ
negative
negatively
negatives
negativity
negl
neglect
neglected
neglig
negligible
negoti
negotiation
negotiations
nei
neigh
neighb
neighbor
neighborhood
neighborhoods
neighboring
neighbors
neighbour
neighbourhood
neighbouring
neighbours
neiss
neisseria
neither
nel
nelf
nelfinavir
nelson
nem
nemat
nematode
nematodes
nemo
nen
neo
neoadjuvant
neoform
neoformans
neol
neoliberal
neon
neonatal
neonate
neonates
neoplas
neoplasia
neoplasm
neoplasms
neoplastic
nep
nepal
neph
nephr
nephritis
nephrop
nephropathy
nephrot
nephrotoxicity
ner
nerv
nerve
nerves
nervous
nes
nest
nested
net
nether
netherlands
nets
netw
network
networking
networks
neu
neu5
neu5ac
neu5gc
neue
neuge
neum
neumon
neumonía
neur
neural
neuramin
neuraminidase
neuro
neuroblast
neuroblastoma
neuroc
neurode
neurodegen
neurodegeneration
neurodegenerative
neurodevelop
neuroendocrine
neurogenic
neuroimaging
neuroinflammation
neurolog
neurologic
neurological
neurology
neurom
neuromuscular
neuron
neuronal
neurons
neurop
neuropath
neuropathy
neuroprotective
neurops
neuropsych
neuropsychiatric
neuros
neurosur
neurosurgery
neurosurgical
neurot
neurotoxicity
neurotrans
neurotransmit
neurotransmitter
neurotropic
neut
neutr
neutral
neutralisation
neutralising
neutralization
neutralize
neutralized
neutralizing
neutrop
neutropenia
neutropenic
neutrophil
neutrophilia
neutrophilic
neutrophils
never
nevertheless
new
newbor
newborn
newborns
newcastle
newer
newly
newman
news
newsp
newspaper
newspapers
newton
nex
next
nf
nfkb
nfκb
ng
ngo
ngos
ngs
nguyen
nh
nh2
nh4
nhc
nhe
nhl
nhp
nhps
nhs
ni
nia
niaid
nib
nic
nice
nich
niche
niches
nicht
nick
nickel
niclos
niclosamide
nico
nicotin
nicotine
nicu
nid
nido
nidovirales
nidovirus
nidoviruses
nie
nied
niel
nielsen
nieren
niet
nig
niger
nigeria
night
nih
nik
nikon
nil
nile
nim
nin
nine
ninet
nineteen
nineteenth
ninety
ning
niosh
nip
nipah
nippv
nir
nis
nit
nitaz
nitazoxanide
nitr
nitrate
nitric
nitrite
nitro
nitroc
nitrocellulose
nitrogen
nitros
niv
nive
niveau
nivel
niños
nj
nk
nkt
nl
nl63
nlm
nlp
nlr
nlrp3
nls
nm
nmd
nmol
nmr
nn
no
no2
nobel
noc
noch
nocturn
nocturnal
nod
nod2
nodal
node
nodes
nodular
nodule
nodules
nog
noise
noisy
nol
nom
nombre
nomencl
nomenclature
nominal
non
nonc
noncoding
noncomm
noncomp
nond
none
nonenveloped
nonessential
noneth
nonetheless
nonf
nong
nonh
nonhuman
noninfectious
noninvasive
nonline
nonlinear
nonm
nonp
nonparametric
nonpathogenic
nonpro
nons
nonsense
nonspecific
nonster
nonsteroidal
nonstructural
nonsurv
nonsurviv
nonsyn
nonsynonymous
nont
nontoxic
nor
nord
norep
norepinephrine
norm
normal
normalised
normality
normalization
normalize
normalized
normalizing
normally
normative
norms
norovirus
noroviruses
north
northeast
northeastern
northern
northwest
norwalk
norway
norweg
norwegian
nos
nose
nosoc
nosocomial
nostr
nostril
not
notable
notably
notamment
notation
notch
note
noted
notes
noteworthy
nothing
notic
notice
noticeable
noticeably
noticed
notif
notifiable
notification
notifications
notified
notify
noting
notion
notions
notor
notwend
notwithstanding
nous
nouve
nov
novartis
nove
novel
novelty
november
novo
now
nowadays
nox
nozz
np
npa
npas
npc
npc1
npi
npis
nps
npv
nr
nrf2
ns
ns1
ns2
ns2b
ns3
ns4a
ns4b
ns5
ns5a
ns5b
nsaid
nsaids
nsclc
nsp
nsp1
nsp10
nsp11
nsp12
nsp13
nsp14
nsp15
nsp16
nsp2
nsp3
nsp4
nsp5
nsp6
nsp7
nsp8
nsp9
nsps
nss
nsw
nt
nta
ntd
ntds
nthi
ntm
ntp
ntr
nts
nu
nuanced
nuc
nucl
nucle
nuclear
nuclease
nucleases
nucleated
nucleation
nuclei
nucleic
nucleoc
nucleocapsid
nucleocapsids
nucleolar
nucleoli
nucleolus
nucleophilic
nucleoprotein
nucleoside
nucleosides
nucleotid
nucleotide
nucleotides
nucleus
nud
nude
nue
null
num
number
numbered
numbering
numbers
numer
numeric
numerical
numerically
numerous
nun
nunc
nup
nur
nurs
nurse
nursery
nurses
nursing
nut
nutri
nutrient
nutrients
nutrition
nutritional
nv
nw
nx
ny
nyc
nylon
nyst
nz
né
nécess
nú
número
o
o157
o2
o3
oa
oas
oas1
oat
ob
ober
obes
obese
obesity
obj
object
objective
objectively
objectives
objects
obl
oblig
obligate
obligation
obligations
obligatory
obliter
obliterans
obs
obsc
obscure
obser
observ
observable
observation
observational
observations
observe
observed
observer
observers
observing
obst
obstac
obstacle
obstacles
obstetric
obstetrics
obstruc
obstruction
obstructive
obtain
obtained
obtaining
obten
obvi
obvious
obviously
oc
oc43
occ
occasion
occasional
occasionally
occasions
occip
occl
occlud
occlusion
occlusive
occult
occup
occupancy
occupants
occupation
occupational
occupations
occupied
occupies
occupy
occupying
occur
occurr
occurred
occurrence
occurrences
occurring
occurs
oce
ocean
och
oct
october
ocular
od
odd
odds
oddsidem
oddsidemargin
ode
oder
odn
odor
oe
oecd
oedema
oes
of
off
offer
offered
offering
offers
offic
office
officer
officers
offices
official
officially
officials
offline
offs
offset
offspring
oft
often
ofthe
og
oh
ohio
ohne
oi
oie
oil
oils
ok
ol
old
older
oldest
olds
ole
olf
olfactory
olig
oligo
oligodend
oligodendrocyte
oligodendrocytes
oligomer
oligomeric
oligomerization
oligomers
oligonucleotid
oligonucleotide
oligonucleotides
oligos
oligosacchar
oligosaccharide
oligosaccharides
olive
ols
oly
olymp
olympus
om
oman
ome
omega
omics
omit
omitted
omn
omp
oms
on
onc
once
oncogene
oncogenic
oncologic
oncological
oncologists
oncology
oncolytic
onder
onderzoek
one
ones
oneself
ongoing
online
only
ons
onset
ont
ontario
onto
ontology
onts
ontsta
ontstaan
onward
onwards
oocyst
oocysts
oocytes
ook
op
opac
opacification
opacities
opacity
opaque
open
opened
opening
openings
openly
openness
opens
oper
operate
operated
operates
operating
operation
operational
operations
operative
operator
operators
oph
ophthal
ophthalm
ophthalmic
ophthalmologists
ophthalmology
opi
opin
opinion
opinions
opioid
opioids
opn
opp
opportun
opportunistic
opportunities
opportunity
opposed
opposing
opposite
opposition
ops
opson
opt
opted
opti
optic
optical
optim
optimal
optimally
optimisation
optimise
optimised
optimism
optimistic
optimization
optimize
optimized
optimizing
optimum
option
optional
options
opv
or
oral
orally
orange
orb
orbit
orbital
orch
orches
ord
order
ordered
ordering
orders
ordinal
ordinary
oreg
orf
orf1
orf1a
orf1ab
orf1b
orf2
orf3
orf3a
orf5
orf6
orf7
orf8
orfs
org
organ
organelle
organelles
organic
organis
organisation
organisational
organisations
organised
organism
organisms
organization
organizational
organizations
organize
organized
organizing
organoids
organs
ori
orient
orientation
orientations
oriented
orig
origin
original
originally
originate
originated
originates
originating
origins
orn
ornith
oro
oroph
oropharyngeal
oropharynx
orphan
ors
orth
ortho
orthog
orthogonal
ortholog
orthologous
orthologs
orthomyx
orthomyxoviridae
orthop
orthopa
orthopaedic
orthopedic
orthore
os
osa
osaka
osc
oscill
oscillation
oscillations
oselt
oseltamivir
osm
osmotic
osp
oss
ost
oste
osteo
osteoarthritis
osteomyelitis
osteonecrosis
osteopor
osteoporosis
ot
ota
other
others
otherwise
otitis
otolaryng
otolaryngology
otras
otros
ott
otu
otus
ou
oud
ought
our
ours
ourselves
out
outb
outbreak
outbreaks
outc
outcome
outcomes
outd
outdoor
outdoors
outer
outflow
outgroup
outlet
outlets
outlier
outliers
outline
outlined
outlines
outlook
outpatient
outpatients
outper
outperform
outperformed
outperforms
output
outputs
outre
outreach
outs
outset
outside
outstanding
outward
outweigh
ov
ova
oval
ovalbumin
ovarian
ovary
oven
over
overall
overarching
overc
overcome
overcoming
overcrow
overcrowding
overd
overdose
overe
overestim
overestimate
overestimated
overestimation
overexp
overexpressed
overexpressing
overexpression
overf
overfitting
overgrowth
overhang
overhead
overl
overlaid
overlap
overlapped
overlapping
overlaps
overlay
overline
overlo
overload
overlooked
overly
overnight
overproduction
overr
overrepresented
overs
overse
overseas
oversight
overt
overuse
overview
overweight
overwhel
overwhelm
overwhelmed
overwhelming
ovid
ovine
ow
owing
own
owned
owner
owners
ownership
ox
oxa
oxal
oxford
oxid
oxidant
oxidase
oxidation
oxidative
oxide
oxides
oxidized
oxim
oximetry
oxo
oxy
oxygen
oxygenation
oxyt
oz
ozone
p
p0
p1
p10
p16
p2
p21
p22
p24
p27
p2x
p3
p38
p4
p40
p450
p5
p50
p53
p6
p62
p65
p7
p9
pa
pab
pac
pace
pacient
paciente
pacientes
pacific
pacing
pack
package
packaged
packages
packaging
packed
packet
packing
paclitaxel
paco
paco2
pact
pad
pads
paediatric
paf
pag
page
pages
pah
pai
paid
pain
painful
pair
paired
pairing
pairs
pairwise
pak
pakistan
pal
palate
pale
paliv
palivizumab
pall
palli
palliative
palm
palmit
palmito
palmitoylation
palp
palpable
palpation
pals
palsy
pam
pamp
pamps
pams
pan
panc
pancre
pancreas
pancreatic
pancreatitis
pand
pandemia
pandemic
pandemics
pandemie
panel
panels
pang
pangolin
pangolins
panic
panning
pant
pao
pao2
pap
papain
paper
papers
papill
papillary
papilloma
papillomavirus
papn
papr
par
para
parac
paracet
paracetamol
paracrine
parad
paradig
paradigm
paradigms
paradox
paradoxical
paradoxically
paraffin
paraform
paraformaldehyde
paragraph
parain
parainflu
parainfluenza
paral
parall
parallel
parallels
paralysis
param
parameter
parameters
parametric
paramount
paramyx
paramyxoviridae
paramyxovirus
paramyxoviruses
parap
paras
parasit
parasite
parasites
parasitic
parat
parc
parech
parenchym
parenchyma
parenchymal
parent
parental
parenter
parenteral
parenthes
parentheses
parenting
parents
pari
parietal
paris
parity
park
parker
parking
parkinson
parks
parli
parliament
parp
pars
parsim
part
parte
parti
partial
partially
partic
particip
participant
participants
participate
participated
participates
participating
participation
participatory
particle
particles
particular
particularly
particulate
parties
partir
partition
partitioned
partitioning
partitions
partly
partn
partner
partners
partnership
partnerships
parts
partur
parturition
party
parv
parvo
parvovirus
parvoviruses
parvum
pas
pass
passage
passaged
passages
passaging
passed
passeng
passenger
passengers
passes
passing
passive
passively
past
paste
pasteur
pasteurell
pasteurella
pasture
pat
patch
patches
patchy
patel
patency
patent
patents
path
pathog
pathogen
pathogenesis
pathogenetic
pathogenic
pathogenicity
pathogens
pathogn
pathologic
pathological
pathologies
pathologist
pathologists
pathology
pathophysi
pathophysiologic
pathophysiological
pathophysiology
paths
pathway
pathways
pati
patient
patienten
patients
patië
patiën
patiënt
patiënten
pattern
patterns
pauc
paucity
paul
paulo
paus
pause
pav
pave
paving
paw
pay
paying
payment
payments
payoff
pays
país
pb
pb1
pb2
pbc
pbl
pbm
pbmc
pbmcs
pbs
pbsc
pbst
pc
pca
pcaggs
pcc
pcd
pcdna
pcdna3
pci
pcl
pcmv
pcp
pcr
pcrs
pcs
pct
pcv
pcv2
pd
pda
pdb
pdc
pdcov
pdcs
pde
pdf
pdgf
pdi
pdm
pdm09
pdms
pdr
pds
pdz
pe
peace
peak
peaked
peaking
peaks
pean
peanut
pear
pearson
pec
peculi
peculiar
ped
pedagog
pedersen
pedest
pedestrian
pedi
pediatr
pediatric
pediatricians
pediatrics
pedv
peep
peer
peers
pef
peg
pegfp
pegylated
pei
peiris
pel
pelle
pellet
pelleted
pellets
pelvic
pelvis
pem
pen
penal
penalty
pendant
pending
penet
penetr
penetrate
penetrating
penetration
peng
penicill
penicillin
penins
peninsula
penns
pennsylvania
pens
pent
peop
people
peoples
pep
pept
peptid
peptidase
peptidases
peptide
peptides
peptidoglycan
peptidyl
per
perc
perce
perceive
perceived
percent
percentage
percentages
percenti
percentile
percentiles
perception
perceptions
percolation
percutaneous
pere
perf
perfect
perfectly
perfor
perforation
perforin
perform
performance
performances
performed
performing
performs
perfring
perfringens
perfused
perfusion
perhaps
peri
peribr
peribronch
peric
pericard
pericardial
pericarditis
perin
perinatal
perine
perinuclear
period
periodic
periodically
periodon
periodontal
periodontitis
periods
perioperative
perip
peripher
peripheral
periphery
periton
peritoneal
peritonitis
periv
perivascular
perk
perkin
perl
perlman
perm
perman
permanent
permanently
perme
permeabil
permeability
permeabilization
permeabilized
permeable
permet
permiss
permission
permissive
permit
permits
permitted
permitting
permutation
pero
perox
peroxid
peroxidase
peroxidation
peroxide
peroxis
perp
perpendicular
perpet
perpetuity
pers
persist
persisted
persistence
persistent
persistently
persisting
persists
person
personal
personality
personalized
personally
personas
personen
personnel
personnes
persons
persp
perspective
perspectives
persu
pert
pertain
pertaining
pertin
pertinent
perturb
perturbation
perturbations
perturbed
pertussis
peru
pervasive
pes
pess
pessim
pest
pesti
pestic
pesticides
pestis
pet
petech
peter
peters
petri
petrole
petroleum
pets
peu
peut
peuvent
pex
peyer
pf
pfa
pfe
pfge
pfizer
pfs
pfu
pg
pge
pge2
pgem
pgl
pgs
ph
ph1n1
pha
phag
phage
phages
phagocyt
phagocytes
phagocytic
phagocytosis
phant
phantom
pharm
pharma
pharmac
pharmaceu
pharmaceutical
pharmaceuticals
pharmacia
pharmacies
pharmacist
pharmacists
pharmacodynamic
pharmacokine
pharmacokinetic
pharmacokinetics
pharmacologic
pharmacological
pharmacology
pharmacophore
pharmacy
pharmingen
pharyng
pharyngeal
pharyngitis
pharynx
phase
phased
phases
phc
phd
phe
pheic
phen
phenol
phenolic
phenomen
phenomena
phenomenon
phenotype
phenotypes
phenotypic
phenotypically
phenotyping
phenyl
phenylalanine
phev
phi
phil
philadel
philadelphia
philipp
philippines
philips
phill
phillips
philos
philosoph
philosophy
phleb
phone
phones
phosph
phosphat
phosphatase
phosphate
phosphatidyl
phosphatidylinositol
phospho
phosphodies
phosphodiesterase
phospholip
phospholipase
phospholipid
phospholipids
phosphoprotein
phosphor
phosphorus
phosphory
phosphoryl
phosphorylate
phosphorylated
phosphorylates
phosphorylation
phot
photo
photoc
photocatalytic
photograph
photographs
photon
photos
photosynth
php
phq
phr
phrase
phrases
phyl
phyll
phylogen
phylogene
phylogenetic
phylogenetically
phylogenies
phylogeny
phylum
phys
physi
physic
physical
physically
physician
physicians
physicochemical
physics
physio
physiologic
physiological
physiologically
physiology
physiotherapy
phyt
phytochemical
phytochemicals
pi
pi3
pi3k
pi4
pi4p
pia
pic
pick
picked
picorna
picornaviridae
picornavirus
picornaviruses
pict
picture
pictures
picu
pid
pie
piec
piece
pieces
pier
pierce
pig
pige
pigeons
piglet
piglets
pigment
pigs
pil
pilgr
pilgrim
pilgrims
pill
pillars
pilot
pim
pin
pine
pink
pione
pioneering
pip
pipeline
pipelines
piper
piperacillin
pipette
pir
pis
pisc
pit
pitch
pitfalls
pitts
pittsburgh
pituitary
piv
piv3
piv5
pivotal
pix
pixel
pixels
più
pj
pk
pka
pkc
pkr
pl
pla
pla2
plac
place
placebo
placed
placement
placent
placenta
placental
placentas
places
placing
plag
plague
plain
plan
planar
plane
planes
planet
planned
planners
planning
plans
plant
plants
plaque
plaques
plas
plasm
plasma
plasmacyt
plasmacytoid
plasmapheresis
plasmid
plasmids
plasmin
plasminogen
plasmodium
plasmon
plastic
plasticity
plastics
plat
plate
plateau
plated
platel
platelet
platelets
plates
platform
platforms
platin
plating
platinum
plaus
plausible
play
played
player
players
playing
plays
plc
ple
please
plei
pleiotropic
plenty
pleocytosis
pleomorphic
pleth
plethora
pleur
pleura
pleural
pleurop
plex
plexus
plga
plos
plot
plots
plotted
plotting
plp
plp2
plpro
pls
plt
plug
plum
plume
plur
plurip
pluripotent
plus
plusieurs
plwh
pm
pm10
pm2
pma
pmd
pml
pmm
pmn
pmns
pmo
pmol
pms
pmsf
pn
pna
pneum
pneumococcal
pneumococci
pneumococcus
pneumocystis
pneumocytes
pneumon
pneumonia
pneumoniae
pneumonias
pneumonic
pneumonie
pneumonitis
pneumophila
pneumothorax
png
pns
po
pobl
población
poc
pock
pocket
pockets
poct
pod
podr
point
pointed
pointing
points
poison
poisoning
poisson
pol
poland
polar
polarity
polarization
polarized
pole
poli
polic
police
policies
policy
policym
policymakers
polio
poliomyelitis
poliovirus
polish
politic
political
politically
politicians
politics
poll
pollen
pollut
pollutant
pollutants
polluted
pollution
poly
polyacrylamide
polyaden
polyadenylated
polyadenylation
polyc
polycl
polyclonal
polyd
polyethylene
polyg
polyhed
polym
polymer
polymerase
polymerases
polymeric
polymerization
polymers
polymicrobial
polymorph
polymorphic
polymorphism
polymorphisms
polymorphonuclear
polyn
polynomial
polyomavirus
polyomaviruses
polyp
polypeptide
polypeptides
polyphen
polyphenols
polypropylene
polyprotein
polyproteins
polyps
polys
polysaccharide
polysaccharides
polyst
polystyrene
polyubiquitin
polyvinyl
pom
pon
pond
pool
pooled
pooling
pools
poor
poorer
poorest
poorly
pop
popul
popular
popularity
populated
population
populations
por
porcine
pore
pores
pork
porosity
porous
porph
port
portability
portable
portal
portfolio
portion
portions
portr
ports
portug
portugal
portuguese
pos
pose
posed
poses
posible
posing
posit
positi
position
positional
positioned
positioning
positions
positiv
positive
positively
positives
positivity
poss
possess
possessed
possesses
possessing
possib
possibilities
possibility
possible
possibly
post
postd
poste
posted
poster
posterior
postexp
postexposure
postgraduate
postin
postinfection
posting
postm
postmortem
postn
postnatal
postoperative
postoperatively
postp
postpartum
postpone
postponed
postponing
posts
posttrans
posttranslational
posttransplant
posttraumatic
postulate
postulated
postulates
posture
pot
potassium
potato
potency
potent
potenti
potential
potentially
potentials
potentiate
potently
pouch
poul
poultry
poults
pour
poverty
pow
powder
power
powered
powerful
powers
pox
poxvirus
poxviruses
pp
pp1
pp1a
pp1ab
ppar
pparγ
ppe
ppg
ppi
ppis
ppm
ppmo
ppp
ppr
pprv
pps
ppv
pq
pr
pr8
pra
prac
practic
practical
practically
practice
practiced
practices
practicing
practition
practitioner
practitioners
prag
pragmatic
prak
praxis
prb
prcv
prd
pre
preb
prec
preca
precarious
precaution
precautionary
precautions
preced
precede
preceded
precedes
preceding
precip
precipitate
precipitated
precipitating
precipitation
precis
precise
precisely
precision
preclinical
preclud
preclude
precluded
precludes
precon
precondition
precurs
precursor
precursors
pred
predator
predators
predefined
predetermined
predic
predicate
predict
predictability
predictable
predicted
predicting
prediction
predictions
predictive
predictor
predictors
predicts
predil
predilection
predisp
predispose
predisposed
predisposes
predisposing
predisposition
prednis
prednisolone
prednisone
predom
predominance
predominant
predominantly
predominate
predominately
preecl
preeclampsia
preemp
preemptive
preexisting
pref
prefecture
prefer
preferable
preferably
preference
preferences
preferential
preferentially
preferred
prefix
preformed
prefusion
pregn
pregnancies
pregnancy
pregnant
prehospital
preinc
prejud
prejudice
prelim
preliminary
prem
premature
prematurely
prematurity
premier
premise
premises
premium
pren
prenatal
preoperative
prep
prepar
preparation
preparations
prepare
prepared
preparedness
preparing
preprint
preprints
preprocess
preprocessing
prere
prerequ
prerequisite
pres
preschool
prescri
prescrib
prescribe
prescribed
prescribing
prescription
prescriptions
presence
presencia
present
presentation
presentations
presented
presenting
presently
presents
preserv
preservation
preserve
preserved
preserves
preserving
president
presidential
press
pressing
pressur
pressure
pressures
presum
presumably
presumed
presumptive
presymptomatic
pret
preterm
pretreated
pretreatment
prev
prevail
prevailing
preval
prevalence
prevalences
prevalent
preven
prevent
preventable
preventative
prevented
preventing
prevention
preventive
prevents
previous
previously
prey
prf
pri
pric
price
prices
pricing
prick
prim
prima
primarily
primary
primate
primates
prime
primed
primer
primers
primes
priming
primitive
prin
princ
prince
princess
princip
principal
principally
principle
principles
print
printed
printing
prion
prions
prior
priori
priorities
prioritis
prioritization
prioritize
prioritized
prioritizing
priority
priors
pris
prise
prism
prisma
prison
prisons
priv
privacy
private
privile
privileged
prize
prl
prm
prnt
pro
proactive
proactively
prob
probabil
probabilistic
probabilities
probability
probable
probably
probe
probed
probes
probing
probiotic
probiotics
proble
problem
problematic
problems
probnp
proc
procalc
procalcitonin
proced
procedural
procedure
procedures
proceed
proceeded
proceeding
proceedings
proceeds
proces
process
processed
processes
processing
processor
procoag
procoagulant
procure
procurement
prod
prodrom
prodrug
produc
produce
produced
producer
producers
produces
producing
product
production
productive
productivity
products
prof
profes
profess
profession
professional
professionals
professions
professor
proficiency
profil
profile
profiles
profiling
profit
profitability
profits
profound
profoundly
prog
progen
progenitor
progenitors
progeny
progester
progesterone
progn
prognose
prognosis
prognostic
progr
program
programm
programme
programmed
programmes
programming
programs
progress
progressed
progresses
progressing
progression
progressive
progressively
prohib
prohibited
proinflammatory
proj
project
projected
projection
projections
projects
prokary
prokaryotes
prokaryotic
prol
prolif
prolifer
proliferate
proliferating
proliferation
proliferative
proline
prolong
prolongation
prolonged
prolonging
prom
promega
promin
prominence
prominent
prominently
promisc
promise
promised
promises
promising
promo
promote
promoted
promoter
promoters
promotes
promoting
promotion
promp
prompt
prompted
prompting
promptly
pron
prone
pronounced
proof
proofreading
proofs
prop
propag
propagate
propagated
propagation
propensity
proper
properly
properties
property
proph
prophyl
prophylac
prophylactic
prophylaxis
propion
propofol
proportion
proportional
proportionally
proportions
propos
proposal
proposals
propose
proposed
proposes
proposing
proposition
propri
propria
proprietary
propyl
pros
prosp
prospect
prospective
prospectively
prospects
prosper
prost
prostagland
prostaglandin
prostaglandins
prostate
prostatic
prosth
prot
prote
proteas
protease
proteases
proteasomal
proteasome
protect
protected
protecting
protection
protections
protective
protects
protein
proteinase
proteinases
proteins
proteinuria
proteobacteria
proteoglycans
proteoly
proteolysis
proteolytic
proteolytically
proteome
proteomes
proteomic
proteomics
prothrombin
prothrombotic
protoc
protocol
protocols
protom
protomer
proton
protonation
protons
prototype
prototypes
protozo
protozoa
protozoan
protr
protracted
proté
prov
prove
proved
proven
proves
provid
provide
provided
provider
providers
provides
providing
provin
provinc
province
provinces
provincial
proving
proviral
provision
provisions
provoke
provoked
prox
proxim
proximal
proximity
proxy
prp
prr
prrs
prrsv
prud
prudent
prue
prun
prur
pruritus
prv
prä
pré
prés
présent
ps
psa
pseud
pseudo
pseudok
pseudoknot
pseudoknots
pseudomonas
pseudop
pseudor
pseudotype
pseudotyped
pseudotypes
pseudovirus
pseudoviruses
psi
psitt
pso
psori
psoriasis
pss
pst
psv
psych
psychi
psychiatr
psychiatric
psychiatrists
psychiatry
psycho
psychological
psychologists
psychology
psychometric
psychos
psychosis
psychosocial
psychotherapy
psychotic
pt
ptb
ptc
pten
pter
pteropus
pth
ptld
ptm
ptms
pts
ptsd
ptx3
pu
pub
puber
publ
public
publication
publications
publicly
publish
published
publisher
publishing
pubmed
puc
pued
puede
pueden
puerto
puf
puff
puis
pul
pull
pulled
pulm
pulmon
pulmonal
pulmonale
pulmonar
pulmonary
pulp
puls
pulse
pulsed
pulses
pump
pumps
pun
punct
puncta
puncture
pup
pupp
puppies
pups
pur
purch
purchase
purchased
purchases
purchasing
pure
purely
purification
purified
purify
purifying
purine
purity
puromycin
purp
purple
purpos
purpose
purposes
purpura
purs
pursue
pursued
pursuing
pursuit
purulent
pus
push
pushed
pushing
pust
put
putative
puts
putting
puzz
pv
pvdf
pvl
pvp
pw
px
py
pyel
pyl
pylori
pym
pymol
pyogenes
pyr
pyre
pyrexia
pyridine
pyrim
pyrimidine
pyro
pyroph
pyroptosis
pyros
pyruvate
pyth
python
pé
péri
q
q1
q2
q3
qa
qatar
qc
qd
qds
qi
qia
qiaamp
qiagen
qin
qing
qiu
qm
qol
qpcr
qq
qr
qrs
qrt
qs
qsar
qt
qtc
qtl
qu
quad
quadrant
quadratic
quadrup
quadruplex
qual
qualified
qualify
qualit
qualitative
qualitatively
qualities
quality
quant
quanti
quantif
quantification
quantified
quantify
quantifying
quantile
quantit
quantitated
quantitation
quantitative
quantitatively
quantities
quantity
quantum
quar
quaran
quarantin
quarantine
quarantined
quarantines
quarantining
quarter
quarterly
quarters
quartile
quartz
quasi
quasis
quasispecies
quatern
quaternary
qub
que
quebec
queen
queens
queensland
quench
quenched
quencher
quenching
quer
quercetin
queried
queries
query
ques
quest
question
questionable
questioned
questioning
questionna
questionnaire
questionnaires
questions
queue
qui
quick
quicker
quickly
quies
quiescent
quiet
quin
quinol
quinolone
quinolones
quir
quit
quite
quo
quoted
qx
r
r0
r1
r2
r3
r4
r5
ra
raas
rab
rabb
rabbit
rabbits
rabies
rabv
rac
racco
raccoon
race
racial
racism
rad
radi
radial
radiation
radical
radically
radicals
radio
radioactive
radioactivity
radiograph
radiographic
radiographs
radiography
radiolab
radiolabeled
radiologic
radiological
radiologist
radiologists
radiology
radiotherapy
radius
radix
raf
raft
rafts
rag
rage
rah
rahmen
rail
railway
rain
rainfall
rainy
raise
raised
raises
raising
raj
ral
rales
ram
raman
ramp
ran
rand
random
randomisation
randomised
randomization
randomized
randomly
rang
range
ranged
ranges
ranging
rangle
rank
ranked
ranking
rankings
ranks
rantes
rao
rap
rapamycin
rapid
rapidity
rapidly
rapport
rar
rare
rarely
ras
rash
rashes
rat
rate
rated
rater
rates
ratg
ratg13
rather
rati
rating
ratings
ratio
ration
rational
rationale
rationally
rationing
ratios
rats
rav
raw
raw264
ray
rays
raz
rb
rbc
rbcs
rbd
rbds
rbm
rbp
rbps
rbv
rc
rca
rcc
rcs
rct
rcts
rd
rdna
rdr
rdrp
rdrps
rds
rdv
re
reach
reached
reaches
reaching
react
reacted
reacting
reaction
reactions
reactiv
reactivated
reactivation
reactive
reactivity
reactor
reacts
read
reader
readers
readily
readiness
reading
readings
readmission
readout
reads
ready
reag
reagent
reagents
real
realistic
realities
reality
realiz
realizar
realization
realize
realized
reall
really
realm
realtime
reared
rearing
rearr
rearrang
rearrangement
rearrangements
reas
reason
reasonable
reasonably
reasoned
reasoning
reasons
reass
reassess
reassort
reassortant
reassortment
reassurance
reassuring
reb
rebound
rebu
rec
recall
recalled
recap
recapit
recapitulate
rece
receip
receipt
receive
received
receiver
receives
receiving
recent
recently
recept
reception
receptor
receptors
recession
recessive
rech
recher
recherche
rechts
recip
recipient
recipients
reciproc
reciprocal
recogn
recognise
recognised
recognition
recognizable
recognize
recognized
recognizes
recognizing
recom
recomb
recombin
recombinant
recombinants
recombinase
recombination
recomend
recomi
recomm
recommend
recommendation
recommendations
recommended
recommending
recommends
recon
reconc
reconfig
recons
reconsider
reconstit
reconstituted
reconstitution
reconstr
reconstruc
reconstruct
reconstructed
reconstruction
reconstructions
record
recorded
recording
recordings
records
recover
recovered
recoveries
recovering
recovery
recre
recreation
recreational
recru
recruit
recruited
recruiting
recruitment
recruits
rect
rectal
rectang
rectum
recumb
recurr
recurrence
recurrences
recurrent
recurring
recurs
recursive
recycl
recycled
recycling
red
redd
redep
redeploy
redes
redistrib
redistribution
redox
reduc
reduce
reduced
reduces
reducing
reduct
reductase
reduction
reductions
redund
redundancy
redundant
reduz
ree
reed
reemerg
reevalu
ref
refer
reference
referenced
references
referral
referrals
referred
referring
refers
refine
refined
refinement
refl
reflect
reflected
reflecting
reflection
reflections
reflective
reflects
reflex
reflexes
reflux
refolding
reform
reforms
refr
refractive
refractory
refriger
refs
refseq
refug
refugee
refugees
refusal
refuse
refused
reg
regard
regarded
regarding
regardless
regards
regel
regen
regeneration
regenerative
regim
regime
regimen
regimens
regimes
region
regional
regions
regis
register
registered
registr
registration
registries
registry
regress
regression
regressions
regul
regular
regularization
regularly
regulate
regulated
regulates
regulating
regulation
regulations
regulator
regulators
regulatory
regurg
regurgitation
reh
rehabil
rehabilitation
rehyd
rehydration
reich
reimb
reimburs
reimbursement
rein
reinf
reinfection
reinfor
reinforce
reinforced
reinforcement
reinforces
reinforcing
reint
reintroduc
reiter
rej
reject
rejected
rejection
rel
relacion
relaps
relapse
relapsed
relapses
relapsing
relate
related
relatedness
relates
relating
relation
relational
relations
relationship
relationships
relativ
relative
relatively
relatives
relax
relaxation
relaxed
relaxing
rele
release
released
releases
releasing
relev
relevance
relevant
reli
reliability
reliable
reliably
reliance
reliant
relie
relied
relief
relies
relieve
relieved
relig
religion
religious
reluct
reluctance
reluctant
rely
relying
rem
remain
remainder
remained
remaining
remains
remark
remarkable
remarkably
remarks
remdes
remdesivir
remed
remedies
remedy
remember
remind
reminder
reminders
reminis
reminiscent
remission
remn
remod
remodeling
remodelling
remot
remote
remotely
remov
removal
remove
removed
removes
removing
remyel
remyelination
ren
renal
render
rendered
rendering
renders
renew
renewable
renewal
renewed
renilla
renin
rent
reop
reopen
reopening
reorgan
reorganization
reoviridae
reovirus
reoviruses
rep
repair
repar
repe
repeat
repeatability
repeated
repeatedly
repeating
repeats
reper
reperc
repercussions
reperfusion
repert
repertoire
repertoires
repeti
repetition
repetitive
repl
replac
replace
replaced
replacement
replacements
replacer
replacing
replen
replic
replicase
replicate
replicated
replicates
replicating
replication
replicative
replicon
replicons
repor
report
reported
reportedly
reporter
reporters
reporting
reports
repos
reposition
repositioning
repositories
repository
repr
repres
represent
representation
representations
representative
representatives
represented
representing
represents
repress
repressed
repression
repressor
repro
reprocess
reproduc
reproduce
reproduced
reproducibility
reproducible
reproduction
reproductive
reprogramm
reprogramming
reptiles
republic
repurp
repurposed
repurposing
reputation
requ
request
requested
requesting
requests
requir
require
required
requirement
requirements
requires
requiring
requisite
rer
res
resc
resched
rescue
rescued
research
researched
researcher
researchers
researches
resected
resection
resemb
resemblance
resemble
resembled
resembles
resembling
reserv
reserve
reserved
reserves
reservoir
reservoirs
resid
reside
residence
residency
resident
residential
residents
resides
residing
residual
residuals
residue
residues
resil
resilience
resilient
resin
resist
resistance
resistant
resnet
resol
resolution
resolutions
resolve
resolved
resolves
resolving
reson
resonance
resorption
resort
resour
resource
resources
resp
respect
respected
respective
respectively
respects
respir
respiration
respiratoire
respiratoires
respirator
respiratoria
respiratorias
respiratorio
respirators
respiratory
respond
responded
respondent
respondents
responder
responders
responding
responds
respons
response
responses
responsibilities
responsibility
responsible
responsive
responsiveness
respuesta
rest
resta
restaur
restaurant
restaurants
resting
restoration
restore
restored
restoring
restr
restrained
restraint
restraints
restric
restrict
restricted
restricting
restriction
restrictions
restrictive
restricts
restruct
restructuring
resul
result
resultados
resultant
resulted
resulting
results
resum
resume
resumed
resumption
resurg
resurgence
resusc
resuscitation
resusp
resuspended
resveratrol
ret
retail
retailers
retain
retained
retaining
retains
retard
retardation
retention
reth
reti
retic
reticul
reticular
reticulocyte
reticulum
retin
retina
retinal
retinoic
retinopathy
retired
retirement
retr
retrie
retrieval
retrieve
retrieved
retro
retrograde
retros
retrosp
retrospective
retrospectively
retrotrans
retroviral
retrovirus
retroviruses
retur
return
returned
returning
returns
retwe
reus
reusable
reuse
rev
revascular
reve
reveal
revealed
revealing
reveals
reven
revenue
revenues
rever
revers
reversal
reverse
reversed
reversibility
reversible
reversing
reversion
revert
review
reviewed
reviewer
reviewers
reviewing
reviews
revis
revised
revising
revision
revisions
revol
revolution
rew
reward
rewards
rewr
reyn
reynolds
rezept
rf
rfid
rfl
rflp
rfp
rg
rgd
rh
rha
rhabd
rhabdomy
rhabdomyolysis
rhamn
rhd
rhdv
rhe
rhesus
rhet
rheum
rheumat
rheumatic
rheumatoid
rheumatology
rhin
rhinitis
rhino
rhinol
rhinoloph
rhinolophus
rhinorrhea
rhinosinus
rhinosinusitis
rhinovirus
rhinoviruses
rhiz
rho
rhod
rhodamine
rhyth
rhythm
ri
rib
ribavir
ribavirin
ribonucle
ribonuclease
ribonucleoprotein
ribos
ribose
ribosomal
ribosome
ribosomes
ribosylation
ric
rice
rich
richard
richards
richness
ricin
rick
ricketts
rickettsia
rico
rid
ridge
ries
riesgo
rif
rifamp
rifampicin
rifampin
rift
rig
right
rightarrow
rights
rigid
rigidity
rigor
rigorous
rigorously
riley
rim
rimantadine
rin
ring
rings
rins
rinse
rinsed
rio
rip
ripa
ris
risc
rise
risen
rises
risik
risiko
rising
risk
risks
risky
risque
rit
ritonavir
ritual
rituximab
riv
rival
river
rivers
riy
riyadh
rj
rk
rki
rl
rlr
rlrs
rluc
rm
rmed
rms
rmsd
rmse
rmsf
rmv
rn
rna
rna1
rnai
rnap
rnas
rnase
rnaseq
rneasy
rnn
rnp
rns
ro
road
roadmap
roads
rob
rober
robert
roberts
robinson
robot
robotic
robots
robust
robustly
robustness
roc
roch
roche
rock
rod
rodent
rodents
rodrig
rodriguez
rods
rog
rogers
roh
roi
rol
role
roles
roll
rolle
rolling
rom
roman
romania
rome
ron
room
rooms
roos
root
rooted
roots
ros
rosa
rose
rosen
ross
rot
rota
rotated
rotating
rotation
rotational
rotations
rotavirus
rotaviruses
roth
rotor
rou
rough
roughly
roughness
round
rounded
rounding
rounds
rous
rout
route
routes
routin
routine
routinely
routines
routing
row
rows
rox
roy
royal
royalties
rp
rpa
rpe
rpl
rpm
rpmi
rpp
rps
rq
rr
rrna
rrs
rrt
rrv
rs
rs12
rsa
rscu
rss
rst
rsv
rt
rta
rtc
rti
rtis
rts
rtv
ru
rub
rubber
rubella
rud
rug
rule
ruled
rules
ruling
rum
rumen
rumin
ruminants
rumor
rumors
run
running
runny
runs
runtime
rup
rupt
rupture
rural
rus
rush
russ
russell
russia
russian
rut
rux
ruxolitinib
rv
rva
rvf
rvfv
rvi
rvp
rvs
rvsv
rw
rx
ry
ryan
ré
réalis
rég
rés
résult
rö
s
s0
s1
s10
s100
s100a
s11
s1a
s1b
s1p
s2
s2a
s2b
s3
s3a
s4
s5
s6
s7
s8
s9
sa
saa
sab
sabin
sac
sacchar
saccharomyces
sacr
sacrific
sacrifice
sacrificed
sad
sads
sae
saf
safe
safegu
safeguard
safely
safer
safety
sag
sagittal
sah
saharan
said
saif
saint
sak
sake
sal
salary
sale
sales
sali
salic
salient
saline
saliv
saliva
salivary
salmon
salmonella
salmonellosis
salt
salts
salud
salv
salvage
sam
same
samp
sample
sampled
sampler
samples
sampling
san
sanc
sanchez
sand
sandwich
sang
sanger
sanit
sanitary
sanitation
sanitiz
sanitizer
sanitizers
sans
sant
santa
santos
santé
sao
sap
sapiens
saponin
saps
sar
sarb
sarbec
sarc
sarcoidosis
sarcoma
sarcop
sari
sars
sarsr
sas
sat
satellite
satisf
satisfaction
satisfactory
satisfied
satisfies
satisfy
satisfying
sato
satur
saturated
saturation
saudi
sauer
sav
save
saved
saving
savings
saw
sax
say
saying
says
sb
sbp
sbt
sc
sca
scaff
scaffold
scaffolding
scaffolds
scal
scalability
scalable
scalar
scale
scaled
scales
scaling
scan
scand
scanned
scanner
scanners
scanning
scans
scant
scar
scarc
scarce
scarcity
scarr
scarring
scat
scatter
scattered
scattering
scaven
scavenger
scavenging
scc
sccm
scd
scenari
scenario
scenarios
scene
scf
scfv
sch
scha
sche
sched
schedule
scheduled
schedules
scheduling
schem
schema
schematic
scheme
schemes
schiff
schist
schistosomiasis
schiz
schizophren
schizophrenia
schl
schle
schmid
schmidt
schn
schne
schneider
schol
scholar
scholarly
scholars
scholarship
schon
school
schooling
schools
schr
schul
schutz
schw
schwangerschaft
schwann
schwartz
schwe
schwer
schwere
schweren
sci
scid
science
sciences
scientif
scientific
scientifically
scientificreports
scientist
scientists
scin
scinti
scintigraphy
scler
sclerosis
scope
scoping
scopus
score
scored
scores
scoring
scorp
scot
scotland
scott
scov
scr
scramb
scrambled
scrap
scrapie
scratch
scre
screen
screened
screening
screenings
screens
scri
script
scripts
scrna
scru
scrub
scrutin
scrutiny
scs
sct
scv
sd
sdf
sdg
sdgs
sds
se
sea
seaf
seafood
seal
sealed
seam
search
searched
searches
searching
seas
season
seasonal
seasonality
seasons
seat
seated
seats
seattle
seb
sec
second
secondary
secondly
seconds
secre
secret
secretary
secrete
secreted
secreting
secretion
secretions
secretory
sect
section
sectional
sectioned
sections
sector
sectoral
sectors
secure
secured
securing
security
sed
sedated
sedation
sedative
sedentary
sediment
sedimentation
see
seed
seeded
seeding
seeds
seeing
seek
seeking
seeks
seem
seemed
seemingly
seems
seen
sees
seg
segment
segmental
segmentation
segmented
segments
segreg
segregated
segregation
segu
sehr
sei
sein
seir
seit
seiz
seizure
seizures
sek
sel
selbst
seldom
select
selected
selectin
selecting
selection
selective
selectively
selectivity
selects
selen
selenium
selex
self
sell
selling
selten
sem
seman
semantic
semantics
semb
semen
semester
semi
semic
semicon
semiconductor
semin
seminal
semiqu
semiquantit
semiquantitative
sen
send
sendai
sending
sends
sene
senegal
senescence
senescent
senior
seniors
sens
sensation
sense
sensed
sensible
sensing
sensiti
sensitis
sensitiv
sensitive
sensitivities
sensitivity
sensitization
sensitized
sensor
sensors
sensory
sent
sentence
sentences
senti
sentiment
sentiments
sentinel
seoul
sep
separ
separate
separated
separately
separates
separating
separation
sephar
sepharose
sepsis
sept
septa
septal
september
septic
septice
septicemia
septum
seq
sequ
sequelae
sequence
sequenced
sequencer
sequences
sequencing
sequential
sequentially
seques
sequester
sequestered
sequestration
ser
sera
serial
serially
series
serine
serious
seriously
seriousness
sero
serocon
seroconversion
seroconverted
serogroup
serologic
serological
serologically
serology
serone
seronegative
serop
seropos
seropositive
seropositivity
seropreval
seroprevalence
seros
serot
serotonin
serotype
serotypes
serous
serov
serovar
serr
sers
sert
sertoli
serum
serv
serve
served
server
servers
serves
service
services
serving
ses
session
sessions
set
setlength
sets
sett
setting
settings
settle
settled
settlement
settlements
settling
setup
sev
seven
sevent
seventeen
seventh
seventy
sever
several
severe
severely
severity
sew
sewage
sex
sexes
sexual
sexually
sf
sf9
sfts
sftsv
sfv
sg
sgl
sgp
sgr
sgrna
sgrnas
sgs
sgta
sh
sha
shad
shaded
shadow
shadows
shah
shaker
shaking
shall
shallow
sham
shame
shan
shandong
shang
shanghai
shannon
shap
shape
shaped
shapes
shaping
shapiro
shar
share
shared
shares
sharing
sharma
sharp
sharply
she
shear
sheath
shed
shedding
sheep
sheet
sheets
shel
shelf
shell
shellfish
shelter
shelters
shen
shenz
shenzhen
shep
sher
shfv
shi
shield
shielding
shields
shif
shift
shifted
shifting
shifts
shig
shiga
shigella
shim
shin
ship
shipment
shipped
shipping
ships
shir
sho
shock
shocks
shop
shopping
shops
short
shortage
shortages
shortcomings
shorten
shortened
shortening
shorter
shortest
shortly
shortness
shot
shotgun
should
shoulder
show
showed
showing
shown
shows
shr
shri
shrimp
shrink
shrinkage
shrna
shrnas
shuff
shunt
shut
shutdown
shutoff
shuttle
si
sia
sial
sialic
sialidase
sialyl
sialylated
sias
sib
sibling
siblings
sic
sich
sicher
sichuan
sick
sickle
sickness
sid
side
sided
sides
sido
sie
siem
siemens
sier
sierra
sig
siga
sight
siglec
sigm
sigma
sigmoid
sign
signal
signaling
signalling
signals
signature
signatures
signed
signi
signifi
signific
significance
significant
significantly
signifik
signifikant
signr
signs
sil
silence
silenced
silencing
silent
silic
silica
silico
silicon
silk
silva
silver
sim
simian
similar
similarities
similarity
similarly
simon
simp
simpl
simple
simpler
simplest
simplex
simplicity
simplification
simplified
simplify
simplifying
simply
simulate
simulated
simulating
simulation
simulations
simulator
simult
simultaneous
simultaneously
sin
since
sind
sindbis
sinensis
sing
singap
singapore
singh
single
singly
singular
sink
sino
sinus
sinuses
sinusitis
sinusoidal
sinv
sio
sip
sir
sirna
sirnas
sirolimus
sirs
sirt
sirt1
sis
sist
sistema
sister
sit
site
sites
sitting
situ
situated
situation
situational
situations
siv
six
sixteen
sixth
sixty
size
sized
sizes
sj
sjl
sk
skel
skeletal
skeleton
sket
skew
skewed
ski
skill
skilled
skills
skim
skin
skull
sky
sl
sla
slaugh
slaughter
slc
sle
sleep
sleeping
slic
slice
slices
slide
slides
sliding
slight
slightly
slip
slipp
slippage
slipper
slippery
slit
slo
slope
slopes
slot
sloven
slow
slowed
slower
slowing
slowly
slud
sludge
sm
sma
smad
small
smaller
smallest
smallpox
smart
smartph
smartphone
smartphones
smear
smears
smell
smes
smirn
smith
smok
smoke
smoker
smokers
smoking
smooth
smoothing
sms
sn
sna
snake
snakes
snap
snaps
snapsh
snapshot
sne
sneeze
sneezing
snij
snijder
snow
snp
snps
snr
sns
snvs
so
soap
sobre
soc
soci
social
socially
societal
societies
society
socio
sociodem
sociodemographic
socioeconomic
sociology
socs
sod
sodium
sof
sofa
sofos
sofosbuvir
soft
software
sog
soil
soils
soins
soit
sol
solar
sold
soldi
soldiers
sole
solely
solic
solid
solidarity
solids
solitary
soll
sollte
sollten
solo
solub
solubility
solubilized
soluble
solute
solution
solutions
solv
solve
solved
solvent
solvents
solver
solvers
solving
som
somat
somatic
some
somehow
someone
something
sometimes
somewh
somewhat
somit
somm
soms
son
sondern
song
sonic
sonicated
sonication
sono
sont
soon
sooner
sop
soph
sophistic
sophisticated
sor
sore
sort
sorted
sorting
sos
sosp
sot
sou
sought
soul
sound
sounds
sour
source
sourced
sources
sous
south
southeast
southeastern
southern
southwest
souvent
sov
sovereign
sovereignty
sovi
soviet
sow
sowie
sowohl
sows
sox
soy
soybean
soz
[...]
